unsigned char checkpoints_2021_08_10_17_23_00_slu_model_tflite[] = {
  0x20, 0x00, 0x00, 0x00, 0x54, 0x46, 0x4c, 0x33, 0x00, 0x00, 0x00, 0x00,
  0x14, 0x00, 0x20, 0x00, 0x1c, 0x00, 0x18, 0x00, 0x14, 0x00, 0x10, 0x00,
  0x0c, 0x00, 0x00, 0x00, 0x08, 0x00, 0x04, 0x00, 0x14, 0x00, 0x00, 0x00,
  0x1c, 0x00, 0x00, 0x00, 0x1c, 0x00, 0x00, 0x00, 0x4c, 0x00, 0x00, 0x00,
  0x30, 0x8c, 0x00, 0x00, 0x40, 0x8c, 0x00, 0x00, 0xe4, 0xbd, 0x00, 0x00,
  0x03, 0x00, 0x00, 0x00, 0x00, 0x00, 0x00, 0x00, 0x01, 0x00, 0x00, 0x00,
  0x0c, 0x00, 0x00, 0x00, 0x08, 0x00, 0x0c, 0x00, 0x08, 0x00, 0x04, 0x00,
  0x08, 0x00, 0x00, 0x00, 0x3d, 0x00, 0x00, 0x00, 0x04, 0x00, 0x00, 0x00,
  0x13, 0x00, 0x00, 0x00, 0x6d, 0x69, 0x6e, 0x5f, 0x72, 0x75, 0x6e, 0x74,
  0x69, 0x6d, 0x65, 0x5f, 0x76, 0x65, 0x72, 0x73, 0x69, 0x6f, 0x6e, 0x00,
  0x3e, 0x00, 0x00, 0x00, 0xe0, 0x8b, 0x00, 0x00, 0xd8, 0x8b, 0x00, 0x00,
  0xc0, 0x8b, 0x00, 0x00, 0xa4, 0x8b, 0x00, 0x00, 0x74, 0x8b, 0x00, 0x00,
  0x44, 0x8b, 0x00, 0x00, 0x2c, 0x8b, 0x00, 0x00, 0x14, 0x8b, 0x00, 0x00,
  0x84, 0x86, 0x00, 0x00, 0x34, 0x86, 0x00, 0x00, 0xe4, 0x85, 0x00, 0x00,
  0xc4, 0x85, 0x00, 0x00, 0xa4, 0x85, 0x00, 0x00, 0x94, 0x81, 0x00, 0x00,
  0x74, 0x81, 0x00, 0x00, 0x54, 0x81, 0x00, 0x00, 0x44, 0x6f, 0x00, 0x00,
  0xb4, 0x6e, 0x00, 0x00, 0x24, 0x6e, 0x00, 0x00, 0xf4, 0x6d, 0x00, 0x00,
  0xc4, 0x6d, 0x00, 0x00, 0xb4, 0x5d, 0x00, 0x00, 0x84, 0x5d, 0x00, 0x00,
  0x54, 0x5d, 0x00, 0x00, 0x44, 0x15, 0x00, 0x00, 0x34, 0x14, 0x00, 0x00,
  0xe4, 0x13, 0x00, 0x00, 0x94, 0x13, 0x00, 0x00, 0x04, 0x09, 0x00, 0x00,
  0x4c, 0x08, 0x00, 0x00, 0xa8, 0x02, 0x00, 0x00, 0x10, 0x02, 0x00, 0x00,
  0x04, 0x01, 0x00, 0x00, 0xfc, 0x00, 0x00, 0x00, 0xf4, 0x00, 0x00, 0x00,
  0xec, 0x00, 0x00, 0x00, 0xe4, 0x00, 0x00, 0x00, 0xdc, 0x00, 0x00, 0x00,
  0xd4, 0x00, 0x00, 0x00, 0xcc, 0x00, 0x00, 0x00, 0xc4, 0x00, 0x00, 0x00,
  0xbc, 0x00, 0x00, 0x00, 0xb4, 0x00, 0x00, 0x00, 0xac, 0x00, 0x00, 0x00,
  0xa4, 0x00, 0x00, 0x00, 0x9c, 0x00, 0x00, 0x00, 0x94, 0x00, 0x00, 0x00,
  0x8c, 0x00, 0x00, 0x00, 0x84, 0x00, 0x00, 0x00, 0x7c, 0x00, 0x00, 0x00,
  0x74, 0x00, 0x00, 0x00, 0x6c, 0x00, 0x00, 0x00, 0x64, 0x00, 0x00, 0x00,
  0x5c, 0x00, 0x00, 0x00, 0x54, 0x00, 0x00, 0x00, 0x4c, 0x00, 0x00, 0x00,
  0x44, 0x00, 0x00, 0x00, 0x3c, 0x00, 0x00, 0x00, 0x34, 0x00, 0x00, 0x00,
  0x2c, 0x00, 0x00, 0x00, 0x24, 0x00, 0x00, 0x00, 0x04, 0x00, 0x00, 0x00,
  0xd6, 0x73, 0xff, 0xff, 0x04, 0x00, 0x00, 0x00, 0x10, 0x00, 0x00, 0x00,
  0x31, 0x2e, 0x31, 0x34, 0x2e, 0x30, 0x00, 0x00, 0x00, 0x00, 0x00, 0x00,
  0x00, 0x00, 0x00, 0x00, 0x38, 0x44, 0xff, 0xff, 0x3c, 0x44, 0xff, 0xff,
  0x40, 0x44, 0xff, 0xff, 0x44, 0x44, 0xff, 0xff, 0x48, 0x44, 0xff, 0xff,
  0x4c, 0x44, 0xff, 0xff, 0x50, 0x44, 0xff, 0xff, 0x54, 0x44, 0xff, 0xff,
  0x58, 0x44, 0xff, 0xff, 0x5c, 0x44, 0xff, 0xff, 0x60, 0x44, 0xff, 0xff,
  0x64, 0x44, 0xff, 0xff, 0x68, 0x44, 0xff, 0xff, 0x6c, 0x44, 0xff, 0xff,
  0x70, 0x44, 0xff, 0xff, 0x74, 0x44, 0xff, 0xff, 0x78, 0x44, 0xff, 0xff,
  0x7c, 0x44, 0xff, 0xff, 0x80, 0x44, 0xff, 0xff, 0x84, 0x44, 0xff, 0xff,
  0x88, 0x44, 0xff, 0xff, 0x8c, 0x44, 0xff, 0xff, 0x90, 0x44, 0xff, 0xff,
  0x94, 0x44, 0xff, 0xff, 0x98, 0x44, 0xff, 0xff, 0x9c, 0x44, 0xff, 0xff,
  0xa0, 0x44, 0xff, 0xff, 0xa4, 0x44, 0xff, 0xff, 0x62, 0x74, 0xff, 0xff,
  0x04, 0x00, 0x00, 0x00, 0xfc, 0x00, 0x00, 0x00, 0x2e, 0xda, 0x17, 0xee,
  0xda, 0xef, 0xd7, 0x12, 0xf1, 0xe2, 0xcb, 0x06, 0xb5, 0x10, 0x44, 0x0d,
  0xc8, 0x0f, 0x32, 0x9d, 0xfe, 0x1b, 0xf6, 0x07, 0x0a, 0x47, 0xd0, 0x24,
  0xf4, 0xb5, 0xbe, 0x20, 0x27, 0x47, 0xc1, 0xc3, 0x15, 0xe0, 0xdb, 0xf5,
  0xcc, 0x10, 0x21, 0xc7, 0x31, 0x01, 0xcc, 0xce, 0x1a, 0x81, 0x27, 0xf4,
  0xd1, 0x0d, 0x28, 0x1e, 0x97, 0xf0, 0xb7, 0xc1, 0x23, 0x97, 0xd4, 0x31,
  0xfd, 0x19, 0xfd, 0x25, 0xab, 0xe0, 0xeb, 0xad, 0xd5, 0x1e, 0x25, 0xe7,
  0x10, 0xda, 0x28, 0xdd, 0xf9, 0x35, 0x02, 0xd5, 0x3b, 0x1a, 0xc5, 0x15,
  0x16, 0x9a, 0xea, 0x1b, 0x0f, 0xc1, 0x03, 0x0b, 0x2b, 0x0e, 0xf1, 0x2a,
  0x27, 0x07, 0x1e, 0xbf, 0xad, 0x15, 0xcd, 0xa4, 0xa5, 0xb1, 0x40, 0xe4,
  0x20, 0x10, 0x43, 0xb9, 0xe2, 0xd7, 0xa4, 0xbe, 0x3b, 0xd8, 0xb2, 0xc3,
  0x45, 0xf9, 0xe1, 0xbb, 0xd5, 0x03, 0xc5, 0x14, 0xc9, 0x0d, 0xdc, 0x0c,
  0x23, 0x05, 0x26, 0x33, 0x08, 0xd8, 0xdf, 0x2f, 0xa9, 0x32, 0x16, 0x12,
  0x10, 0xe4, 0xf5, 0xc5, 0x17, 0x36, 0xdb, 0x20, 0xdf, 0xe2, 0xf8, 0xd2,
  0x34, 0x37, 0xdc, 0x04, 0xe9, 0xff, 0x24, 0xfc, 0xec, 0x0c, 0x11, 0xb4,
  0x0a, 0x99, 0x22, 0x01, 0xce, 0x05, 0xdb, 0x97, 0xe0, 0xea, 0x12, 0x17,
  0xe6, 0xc8, 0x15, 0xeb, 0xf1, 0x0c, 0xd9, 0x3f, 0xb7, 0xfe, 0x17, 0xc8,
  0x35, 0x14, 0x18, 0xce, 0xfc, 0xdf, 0x20, 0xdf, 0xc9, 0x44, 0xd1, 0x0a,
  0xe0, 0x5b, 0xe3, 0x51, 0xd2, 0x1a, 0x37, 0x2e, 0x17, 0x0e, 0xdf, 0x22,
  0xf2, 0xfb, 0xe5, 0xb4, 0x0c, 0xe2, 0x35, 0xe4, 0xf8, 0x21, 0x0d, 0xae,
  0x30, 0x05, 0x29, 0x12, 0x05, 0xde, 0xfc, 0x00, 0xaa, 0xf1, 0x0e, 0xc4,
  0xe5, 0x16, 0xfe, 0xc2, 0xf4, 0xec, 0x0a, 0xf9, 0x6a, 0x75, 0xff, 0xff,
  0x04, 0x00, 0x00, 0x00, 0x88, 0x00, 0x00, 0x00, 0xf3, 0xff, 0xff, 0xff,
  0x6f, 0xfb, 0xff, 0xff, 0x6b, 0xfe, 0xff, 0xff, 0x88, 0xfe, 0xff, 0xff,
  0x54, 0xff, 0xff, 0xff, 0x65, 0x01, 0x00, 0x00, 0x7d, 0x01, 0x00, 0x00,
  0xe5, 0xff, 0xff, 0xff, 0xcd, 0xfc, 0xff, 0xff, 0x95, 0xfc, 0xff, 0xff,
  0x7d, 0xf9, 0xff, 0xff, 0xba, 0xf9, 0xff, 0xff, 0xed, 0xf9, 0xff, 0xff,
  0x90, 0x01, 0x00, 0x00, 0x65, 0x01, 0x00, 0x00, 0xf8, 0xff, 0xff, 0xff,
  0x82, 0x02, 0x00, 0x00, 0x12, 0xfa, 0xff, 0xff, 0x0e, 0xfa, 0xff, 0xff,
  0xe6, 0xf9, 0xff, 0xff, 0xee, 0xf9, 0xff, 0xff, 0x23, 0xfa, 0xff, 0xff,
  0xc1, 0xf9, 0xff, 0xff, 0xef, 0xf9, 0xff, 0xff, 0xe6, 0xf9, 0xff, 0xff,
  0x1b, 0xfa, 0xff, 0xff, 0x3a, 0xfa, 0xff, 0xff, 0xe4, 0x00, 0x00, 0x00,
  0x8f, 0xff, 0xff, 0xff, 0xa8, 0x00, 0x00, 0x00, 0x0a, 0xfa, 0xff, 0xff,
  0x1d, 0xfa, 0xff, 0xff, 0x6e, 0xfa, 0xff, 0xff, 0x4e, 0x02, 0x00, 0x00,
  0xfe, 0x75, 0xff, 0xff, 0x04, 0x00, 0x00, 0x00, 0x94, 0x05, 0x00, 0x00,
  0x17, 0xb1, 0xc3, 0x03, 0x2a, 0xbb, 0x12, 0xa7, 0xd5, 0xd5, 0x17, 0xc5,
  0x25, 0x10, 0x1a, 0x2a, 0xf5, 0x10, 0x19, 0xc9, 0xe2, 0xfd, 0xb0, 0xe3,
  0xd6, 0xea, 0x2b, 0xfd, 0xb6, 0xbd, 0x1f, 0xdd, 0xdb, 0x04, 0xbc, 0x1b,
  0x29, 0xc8, 0xd7, 0xed, 0x35, 0x84, 0xf4, 0xf6, 0xfd, 0xf1, 0xc8, 0xc5,
  0x0e, 0xe3, 0xc7, 0xee, 0xe8, 0xe9, 0xdf, 0xd8, 0xf1, 0xf0, 0xdb, 0xb9,
  0xe7, 0x10, 0xed, 0x07, 0x00, 0xf0, 0xb9, 0x3b, 0xeb, 0xc7, 0x12, 0x0b,
  0xe2, 0xec, 0xeb, 0xdc, 0xe4, 0xfd, 0xea, 0x20, 0xfc, 0x51, 0x20, 0x25,
  0xee, 0x06, 0xfa, 0xe7, 0xb6, 0xda, 0xfd, 0xde, 0xfa, 0xdb, 0x1f, 0xc7,
  0xac, 0xc0, 0xfc, 0xd7, 0x05, 0xe0, 0x0b, 0xe0, 0xf8, 0xe0, 0x2e, 0xff,
  0xef, 0xe8, 0x08, 0xc3, 0x1a, 0xe4, 0x0f, 0xd5, 0x3c, 0x18, 0x0f, 0xba,
  0xe0, 0x29, 0xe1, 0xfe, 0xde, 0x15, 0xac, 0x9a, 0x8a, 0x1b, 0xf4, 0xb6,
  0x15, 0x27, 0x34, 0x2d, 0xd3, 0xe4, 0xf1, 0x3d, 0x2f, 0x8a, 0xb4, 0xa5,
  0x07, 0xd8, 0xdb, 0x1a, 0xc3, 0x2f, 0x1c, 0x2c, 0x0b, 0xd4, 0x88, 0xd0,
  0xd0, 0x1c, 0xbb, 0x19, 0x10, 0xc8, 0xda, 0xdb, 0x37, 0xe8, 0x02, 0xe9,
  0x2e, 0xbe, 0x03, 0x1b, 0x14, 0xb0, 0x04, 0x32, 0xcb, 0xe1, 0xa0, 0x38,
  0x13, 0x07, 0xed, 0x59, 0x1d, 0x1e, 0xc5, 0xc5, 0xd2, 0xca, 0xce, 0xd3,
  0xa1, 0xb5, 0xfe, 0xae, 0x1d, 0x30, 0xec, 0xe6, 0xb2, 0xe5, 0xb7, 0xea,
  0xc0, 0xba, 0xc3, 0xde, 0x41, 0xb2, 0x1b, 0xe4, 0x23, 0x0f, 0xf6, 0xfb,
  0xec, 0x0c, 0x32, 0xcb, 0xd7, 0xcd, 0x09, 0xf0, 0x17, 0xf0, 0xe1, 0xca,
  0x08, 0xb9, 0x11, 0x25, 0x09, 0x1c, 0x20, 0x0d, 0xd1, 0x3a, 0xb5, 0xf3,
  0xad, 0xf9, 0x26, 0x34, 0xec, 0xfd, 0x27, 0xe5, 0x06, 0x38, 0x06, 0xb9,
  0x0e, 0xa7, 0x0a, 0xbe, 0xdb, 0x0f, 0x33, 0x0c, 0xec, 0xdd, 0x17, 0x36,
  0xfe, 0x2c, 0xf5, 0x0f, 0x99, 0xe7, 0x30, 0xcf, 0xee, 0xdb, 0x26, 0x24,
  0x12, 0xb1, 0x89, 0xf8, 0xde, 0xe2, 0x98, 0x48, 0xef, 0xbd, 0x05, 0xdf,
  0x04, 0xc8, 0x0a, 0xcb, 0xfe, 0xde, 0xc0, 0xf4, 0x07, 0xa4, 0x02, 0xe3,
  0x25, 0xdd, 0xe7, 0x03, 0xc5, 0xd6, 0xe2, 0x2d, 0xec, 0xdd, 0xd7, 0xc7,
  0xe3, 0xdb, 0x42, 0xd9, 0xc6, 0xe7, 0xe8, 0xfe, 0x28, 0xd8, 0x19, 0x01,
  0x09, 0x09, 0xb0, 0x21, 0x40, 0x06, 0xc5, 0x15, 0x1b, 0x20, 0xa3, 0x14,
  0xf7, 0xf4, 0xd0, 0x3c, 0x1a, 0x03, 0xb9, 0xea, 0x03, 0xa5, 0x0d, 0x08,
  0x2b, 0xf7, 0xc9, 0x0d, 0x27, 0x16, 0xfe, 0xe7, 0xed, 0xdc, 0x05, 0xda,
  0xb2, 0xcd, 0xf5, 0x07, 0x2c, 0xc1, 0x11, 0xcf, 0xf2, 0xe7, 0xdc, 0xc6,
  0x4e, 0xf9, 0xbc, 0xa8, 0x1b, 0xfa, 0xdd, 0xef, 0xff, 0xcf, 0xe7, 0xd8,
  0xf0, 0xe4, 0xdf, 0xfe, 0xd0, 0xc6, 0xc7, 0xc1, 0xdf, 0x43, 0xfa, 0xd1,
  0x0d, 0xef, 0xbe, 0x07, 0xd0, 0xd8, 0xc0, 0x05, 0x04, 0xcc, 0x00, 0x16,
  0x13, 0xf5, 0x06, 0xf5, 0x2e, 0x03, 0x0e, 0x3e, 0xd7, 0xba, 0xc6, 0x11,
  0xb3, 0xc6, 0xa3, 0xa7, 0xbf, 0xcf, 0xc2, 0xb6, 0xad, 0xc8, 0xb5, 0xd1,
  0xd0, 0xe4, 0xc2, 0x95, 0xb0, 0xb4, 0xac, 0xe6, 0xca, 0xbf, 0xd4, 0x8e,
  0xb8, 0xcc, 0xd4, 0xbf, 0xc3, 0xc4, 0xbc, 0xed, 0xf0, 0xe1, 0xcc, 0xca,
  0xb2, 0xd5, 0xae, 0xd0, 0xb2, 0x8d, 0xb8, 0xd1, 0xc6, 0xcd, 0xc5, 0xd3,
  0xdb, 0xb2, 0xab, 0xbb, 0xad, 0xa8, 0xc1, 0xb1, 0xc2, 0x95, 0xad, 0xca,
  0xb7, 0xd9, 0xca, 0xc4, 0xe7, 0x81, 0xbc, 0xc4, 0xc8, 0xd9, 0xbe, 0xac,
  0xb6, 0xd2, 0xe9, 0xdf, 0xd8, 0xc6, 0xd0, 0xb1, 0xaf, 0xd1, 0xb7, 0xa6,
  0xb4, 0xc7, 0x9a, 0xa5, 0xd0, 0xd0, 0xbd, 0xae, 0xb7, 0xb3, 0xd2, 0xb7,
  0xba, 0xb9, 0xcb, 0xa7, 0xaf, 0xb3, 0xca, 0xc2, 0xcf, 0xc8, 0xfa, 0x88,
  0xca, 0xd2, 0xc6, 0xb6, 0xad, 0xb5, 0xc7, 0xdf, 0xe5, 0xd4, 0xe1, 0xda,
  0xbc, 0xc9, 0xb9, 0xbc, 0xc5, 0xa8, 0xf9, 0x20, 0x15, 0x12, 0x0c, 0x3a,
  0xc9, 0x02, 0xc8, 0x35, 0x1a, 0xee, 0x0f, 0xf6, 0xdd, 0xdc, 0x20, 0x20,
  0xc4, 0x2b, 0x3d, 0x04, 0x21, 0xd3, 0x0f, 0x13, 0xea, 0x11, 0xa8, 0x20,
  0xcd, 0x37, 0x1a, 0xe4, 0x27, 0xf1, 0xf3, 0xc2, 0x05, 0xf7, 0x07, 0xe0,
  0xc3, 0x14, 0xda, 0x19, 0xfa, 0xd4, 0xdb, 0xf7, 0xcf, 0x13, 0x20, 0x2a,
  0x0d, 0x0e, 0x1a, 0xe4, 0xf2, 0x0e, 0xd5, 0x38, 0x18, 0xe4, 0x25, 0x2b,
  0x10, 0x06, 0x23, 0x06, 0xeb, 0xfa, 0xba, 0xd1, 0xf0, 0xda, 0x07, 0x42,
  0xf3, 0xe9, 0x29, 0x26, 0x0c, 0xbd, 0x20, 0x23, 0xba, 0x03, 0x1b, 0xe3,
  0xe1, 0xcb, 0xb4, 0xc1, 0x51, 0x0c, 0x0a, 0x27, 0xaa, 0xec, 0x32, 0x0c,
  0x31, 0xf5, 0xa6, 0x8f, 0xe9, 0xbe, 0xf4, 0x0e, 0x17, 0x1f, 0xfd, 0xd8,
  0x1c, 0xcf, 0xef, 0xed, 0x9b, 0xde, 0xdb, 0xbd, 0xcc, 0xe3, 0xaa, 0x0a,
  0xed, 0xef, 0x3d, 0xc2, 0x21, 0x19, 0xf5, 0x16, 0xf6, 0xd9, 0x0e, 0xce,
  0xc5, 0xc9, 0xdc, 0x0a, 0xf7, 0xd2, 0x03, 0xfb, 0x1e, 0x19, 0xf1, 0x56,
  0xc2, 0xef, 0xcb, 0xea, 0x06, 0x10, 0x28, 0xd3, 0xf3, 0xd7, 0xca, 0x0a,
  0xeb, 0x16, 0xfa, 0xba, 0xda, 0x1b, 0xba, 0xbb, 0xb7, 0xde, 0xea, 0xb1,
  0xea, 0xb9, 0xb9, 0xcd, 0xea, 0xd3, 0xa3, 0xd5, 0xc3, 0xb0, 0xd1, 0x9d,
  0xc1, 0xd8, 0xa8, 0xca, 0xfd, 0x9d, 0xaa, 0xa8, 0xc6, 0xe0, 0xbc, 0x9c,
  0xea, 0xd3, 0xc8, 0xdf, 0xea, 0xcf, 0xb5, 0xda, 0xc7, 0xd9, 0xc7, 0xbe,
  0xb8, 0xb7, 0xaa, 0xae, 0xe7, 0xba, 0xc2, 0x9a, 0x95, 0xae, 0xd0, 0xda,
  0xd2, 0xed, 0xc9, 0xa9, 0xc3, 0xa3, 0xd0, 0xea, 0xa3, 0xde, 0xf5, 0xa9,
  0xbf, 0xbe, 0xc8, 0xc5, 0xde, 0xb7, 0xed, 0xf5, 0xf2, 0xd4, 0xca, 0xc6,
  0xae, 0xc5, 0xdd, 0xba, 0xdc, 0xc2, 0xa9, 0xb5, 0xbc, 0xce, 0xe5, 0xd1,
  0xc4, 0xb4, 0xa8, 0xc3, 0xc9, 0xba, 0xcd, 0xdc, 0xc8, 0xba, 0xa7, 0xc4,
  0xd0, 0xde, 0xb6, 0xbc, 0xfe, 0x8d, 0xd1, 0xd6, 0xc0, 0xc5, 0xe2, 0xb0,
  0xeb, 0xf8, 0xca, 0xc5, 0xf2, 0xb5, 0xb7, 0xca, 0xb9, 0xd0, 0xbc, 0xac,
  0xc0, 0xa7, 0xb1, 0xbc, 0xbf, 0xac, 0xdc, 0xb6, 0xb2, 0xc9, 0xc0, 0xea,
  0xb3, 0xe0, 0xb7, 0xb8, 0xb2, 0xa5, 0xd5, 0xc2, 0xb7, 0xc6, 0xd9, 0xa4,
  0xca, 0xc2, 0xd0, 0xc4, 0xb7, 0xc0, 0xdb, 0xed, 0xe8, 0xc8, 0xcd, 0xcd,
  0xb0, 0xcd, 0xba, 0xb0, 0xd0, 0xc4, 0xb4, 0xdb, 0xb3, 0xb0, 0xd9, 0xb6,
  0xca, 0xba, 0x9e, 0xb0, 0xdc, 0xb9, 0xcf, 0xc0, 0xca, 0xb3, 0xaa, 0xaa,
  0xc7, 0xca, 0xaf, 0xe1, 0xda, 0x99, 0xdd, 0xb2, 0xd2, 0xe1, 0xbe, 0xc3,
  0xf4, 0xcc, 0xe2, 0xdf, 0xef, 0xc8, 0xc4, 0xbd, 0xb2, 0xb7, 0xd6, 0xb4,
  0xa6, 0xba, 0xbf, 0xb4, 0xe3, 0xb7, 0xbf, 0xa2, 0xb0, 0xbd, 0xc9, 0xb8,
  0xc1, 0xda, 0xc6, 0x9b, 0xc5, 0xc8, 0xcd, 0xdd, 0xc6, 0xe4, 0xcd, 0x82,
  0xa6, 0xb9, 0xd8, 0xd4, 0xd3, 0xba, 0xe8, 0xf3, 0xd1, 0xc5, 0xfa, 0xc8,
  0xcf, 0xca, 0xd7, 0xcb, 0xd1, 0xbf, 0xbc, 0xc7, 0xa1, 0xd5, 0xc3, 0xc0,
  0xe0, 0xb5, 0xbb, 0xaa, 0xc0, 0xd7, 0xb3, 0xe0, 0x9f, 0xa5, 0xb1, 0xc0,
  0xc2, 0xcb, 0xcf, 0xe6, 0xe2, 0xa6, 0xd5, 0xaf, 0xca, 0xb7, 0xd8, 0xaa,
  0xd3, 0xc9, 0xf5, 0xc7, 0xe8, 0xcc, 0xb9, 0xdb, 0xd1, 0xc5, 0xdd, 0xd4,
  0xa7, 0xb5, 0xd0, 0xd0, 0xc9, 0xbd, 0xc4, 0xa6, 0xa9, 0xba, 0xbb, 0xb8,
  0xa7, 0xcd, 0xb2, 0xb9, 0xb4, 0xca, 0xd9, 0xc4, 0xb3, 0xd1, 0xe7, 0x87,
  0xbe, 0xcc, 0xdc, 0xc6, 0xd3, 0xc4, 0xe9, 0xce, 0xf2, 0xd5, 0xdd, 0xd3,
  0xc3, 0xd2, 0xce, 0xc1, 0xe2, 0xaa, 0xb6, 0xa8, 0xa9, 0xd6, 0xc2, 0xb2,
  0xe8, 0xb4, 0xa2, 0xa6, 0xde, 0xe8, 0xd4, 0xed, 0xb5, 0xae, 0xc7, 0xa6,
  0xce, 0xe1, 0xa0, 0xc6, 0xf6, 0x8d, 0xc3, 0xc3, 0xc9, 0xc3, 0xd8, 0xbd,
  0xc5, 0xf9, 0xcd, 0xc2, 0xd1, 0xbb, 0xd5, 0xe3, 0xc1, 0xca, 0xce, 0xcc,
  0xb0, 0xb5, 0xa9, 0xe1, 0xc4, 0xb2, 0xd1, 0xcb, 0xbc, 0xd4, 0xcb, 0xbb,
  0xa4, 0xd2, 0xc9, 0xaa, 0xaf, 0xa2, 0xcc, 0xc5, 0xa5, 0xc6, 0xfd, 0xa9,
  0xd1, 0xa2, 0xd6, 0xe7, 0xb6, 0xb8, 0xe2, 0xe7, 0xdb, 0xd4, 0xd5, 0xc6,
  0xb6, 0xd3, 0xb3, 0xe0, 0xec, 0xd1, 0x46, 0xfb, 0x16, 0xd8, 0x02, 0x27,
  0x21, 0x32, 0x13, 0x0d, 0xef, 0xe2, 0x06, 0x0a, 0xf3, 0xca, 0x12, 0xfd,
  0xfd, 0xee, 0xc7, 0xe2, 0x0d, 0x0f, 0xa3, 0xfb, 0xfc, 0x28, 0xe8, 0xfa,
  0x00, 0xeb, 0x1e, 0x21, 0x2c, 0x1b, 0x02, 0xdc, 0x23, 0x23, 0xf5, 0xf6,
  0xdf, 0x23, 0x28, 0xdd, 0x13, 0x26, 0xe2, 0x08, 0x30, 0x0e, 0x45, 0xd7,
  0x0a, 0x14, 0x09, 0x21, 0x0a, 0xf7, 0xf6, 0x01, 0xee, 0x1c, 0xde, 0x02,
  0x31, 0xf4, 0xff, 0xbb, 0xce, 0x09, 0xfd, 0xf7, 0xf7, 0x20, 0x26, 0xfa,
  0xf7, 0xf3, 0xcc, 0x25, 0x2b, 0xee, 0xbc, 0x08, 0xee, 0x2e, 0xf8, 0x21,
  0x1d, 0xba, 0x0a, 0x10, 0xeb, 0x02, 0x00, 0xe6, 0x1b, 0xff, 0xfb, 0xfd,
  0x10, 0x27, 0x38, 0x09, 0x01, 0x10, 0xef, 0xfe, 0x12, 0x2f, 0xcd, 0x19,
  0xdb, 0xfb, 0x2d, 0x14, 0x12, 0xce, 0x28, 0x12, 0xee, 0xd7, 0x1c, 0xf8,
  0xd1, 0xa8, 0x9c, 0xb1, 0xd6, 0xb7, 0xe3, 0xc4, 0x8a, 0xa9, 0xc5, 0xd4,
  0xb3, 0xe3, 0xc3, 0x9d, 0xc7, 0xa7, 0xda, 0xea, 0xca, 0xe0, 0xda, 0xb9,
  0xb5, 0xd7, 0xe0, 0xb1, 0xbc, 0xa7, 0xd3, 0xf2, 0xee, 0xe1, 0xda, 0xba,
  0xc3, 0xc3, 0xcf, 0xd4, 0xe1, 0xc4, 0xc8, 0xac, 0xad, 0xaf, 0xc4, 0xac,
  0xcc, 0xcd, 0xa8, 0xcb, 0xe1, 0xba, 0xd2, 0xc6, 0xd3, 0x99, 0xb7, 0xa5,
  0xd0, 0xd8, 0xb4, 0xc1, 0xd6, 0x8f, 0xdc, 0xbb, 0xd3, 0xd2, 0xe0, 0xae,
  0xd8, 0xe8, 0xfb, 0xbb, 0xeb, 0xc2, 0xde, 0xe4, 0xc4, 0xb1, 0xc8, 0xbb,
  0xb9, 0xb5, 0x9f, 0xc5, 0xc6, 0xc3, 0xe0, 0xae, 0xad, 0xd0, 0xea, 0xc6,
  0xab, 0xe7, 0xb4, 0xc9, 0xae, 0xa2, 0xb9, 0xd6, 0xad, 0xd7, 0xd5, 0x90,
  0xcd, 0xb5, 0xd1, 0xd4, 0xc9, 0xbb, 0xe1, 0xfa, 0xde, 0xe1, 0xdc, 0xb8,
  0xde, 0xd6, 0xce, 0xb5, 0xd9, 0xd7, 0x29, 0xfa, 0x13, 0x2c, 0x25, 0xe9,
  0x10, 0xf6, 0xe7, 0x02, 0x03, 0x40, 0x1e, 0x1d, 0x0a, 0x0c, 0xfe, 0x01,
  0x1c, 0x14, 0xfc, 0x0a, 0xf8, 0x04, 0x17, 0x1b, 0x2e, 0xe8, 0x68, 0x18,
  0x26, 0x34, 0xda, 0xe8, 0x00, 0x0e, 0x10, 0x2b, 0x44, 0xdf, 0xe0, 0x2e,
  0x9e, 0x7b, 0xff, 0xff, 0x04, 0x00, 0x00, 0x00, 0xa8, 0x00, 0x00, 0x00,
  0xfc, 0x03, 0x00, 0x00, 0x6b, 0xfc, 0xff, 0xff, 0xfd, 0x0c, 0x00, 0x00,
  0xdb, 0x06, 0x00, 0x00, 0x0e, 0x02, 0x00, 0x00, 0xba, 0x04, 0x00, 0x00,
  0xad, 0x09, 0x00, 0x00, 0x03, 0x03, 0x00, 0x00, 0x52, 0x03, 0x00, 0x00,
  0xac, 0x06, 0x00, 0x00, 0xc9, 0x08, 0x00, 0x00, 0xab, 0x05, 0x00, 0x00,
  0x72, 0x0a, 0x00, 0x00, 0x07, 0x06, 0x00, 0x00, 0xd7, 0x08, 0x00, 0x00,
  0x23, 0x01, 0x00, 0x00, 0x7f, 0x05, 0x00, 0x00, 0x2a, 0x06, 0x00, 0x00,
  0xfe, 0x03, 0x00, 0x00, 0x31, 0x06, 0x00, 0x00, 0x4e, 0x0c, 0x00, 0x00,
  0xfc, 0x03, 0x00, 0x00, 0x96, 0x06, 0x00, 0x00, 0x2a, 0x0f, 0x00, 0x00,
  0x88, 0x07, 0x00, 0x00, 0xdb, 0x07, 0x00, 0x00, 0x00, 0x06, 0x00, 0x00,
  0xc9, 0x07, 0x00, 0x00, 0x0f, 0x02, 0x00, 0x00, 0x93, 0x08, 0x00, 0x00,
  0x8a, 0x00, 0x00, 0x00, 0x6f, 0xfd, 0xff, 0xff, 0xe6, 0x07, 0x00, 0x00,
  0xd2, 0x02, 0x00, 0x00, 0xcc, 0x03, 0x00, 0x00, 0x75, 0x01, 0x00, 0x00,
  0xe8, 0x04, 0x00, 0x00, 0xff, 0x04, 0x00, 0x00, 0x0f, 0x08, 0x00, 0x00,
  0xb0, 0x04, 0x00, 0x00, 0x9c, 0x04, 0x00, 0x00, 0xc5, 0x04, 0x00, 0x00,
  0x52, 0x7c, 0xff, 0xff, 0x04, 0x00, 0x00, 0x00, 0x80, 0x0a, 0x00, 0x00,
  0xd9, 0xf7, 0x12, 0x1e, 0x36, 0xfa, 0x24, 0x1c, 0xf1, 0xf5, 0x0c, 0x18,
  0xe4, 0xdf, 0x81, 0x1c, 0x0c, 0xf4, 0x2a, 0xfc, 0x10, 0x0f, 0x09, 0xfb,
  0xc3, 0x34, 0xca, 0xd6, 0x0c, 0x03, 0x0c, 0xff, 0xda, 0x21, 0xb8, 0xd3,
  0x34, 0x14, 0x27, 0x04, 0x25, 0xea, 0x18, 0x21, 0x19, 0xf0, 0x0e, 0xa9,
  0xec, 0xf8, 0x09, 0x0c, 0x09, 0x02, 0xe1, 0x11, 0x0b, 0x14, 0x2a, 0x1f,
  0x0c, 0xf0, 0xed, 0x18, 0x10, 0x20, 0xbe, 0x00, 0x01, 0xf2, 0x10, 0xdc,
  0x02, 0x04, 0x0a, 0xce, 0xfe, 0x25, 0x14, 0xcd, 0x24, 0xf0, 0x14, 0xf5,
  0xe7, 0xed, 0xe2, 0x07, 0x0a, 0x22, 0x04, 0xec, 0x05, 0x02, 0xf5, 0x11,
  0xec, 0x2b, 0xfe, 0x20, 0xf9, 0xc2, 0x18, 0x26, 0xf2, 0xf9, 0xed, 0x19,
  0xfc, 0x0c, 0x04, 0x1d, 0x0a, 0xf3, 0x06, 0x1b, 0x11, 0x05, 0x14, 0x0a,
  0xf0, 0x10, 0x0d, 0xda, 0xee, 0x3b, 0xd4, 0x36, 0xe5, 0x04, 0xef, 0xf0,
  0xe6, 0x15, 0x0d, 0x18, 0x11, 0x0d, 0xf6, 0x0f, 0x27, 0x0d, 0xb0, 0xef,
  0xe7, 0xc8, 0x02, 0xff, 0xf7, 0x39, 0x07, 0x07, 0xfa, 0x14, 0x08, 0x0a,
  0x22, 0x0f, 0x09, 0xfe, 0x09, 0xee, 0x04, 0xf0, 0x32, 0x08, 0xec, 0xf3,
  0x20, 0x1f, 0xf5, 0xbf, 0x13, 0xd6, 0x27, 0xd7, 0xf6, 0xf0, 0xf8, 0x1b,
  0x06, 0x15, 0xe2, 0x37, 0x0e, 0xeb, 0x30, 0xe7, 0xfa, 0x0d, 0xf5, 0x0d,
  0xfa, 0x17, 0x0f, 0xf8, 0xe3, 0x14, 0x10, 0xfe, 0x0d, 0xdd, 0x04, 0x09,
  0xb7, 0xfa, 0x20, 0x08, 0x09, 0xff, 0xd1, 0x04, 0x01, 0x06, 0xf6, 0xd3,
  0xee, 0x0b, 0xd3, 0x0f, 0x05, 0xdc, 0xf8, 0x01, 0x0d, 0x00, 0x23, 0xec,
  0x04, 0x02, 0x22, 0x16, 0xf3, 0x05, 0x11, 0x1c, 0x0d, 0x03, 0xdd, 0x24,
  0x25, 0xf0, 0xf4, 0xde, 0x0d, 0x2a, 0x0e, 0x0d, 0x10, 0x27, 0xf0, 0x26,
  0xf6, 0xf6, 0xff, 0x1f, 0xf9, 0xf8, 0xed, 0xf3, 0x29, 0x28, 0x2c, 0x19,
  0x33, 0xe1, 0xf0, 0xdc, 0x16, 0xed, 0xf0, 0x11, 0xde, 0xe9, 0xda, 0x30,
  0xde, 0x0c, 0xff, 0xdc, 0xfa, 0x06, 0xeb, 0xf0, 0x30, 0xe4, 0xd6, 0x03,
  0x03, 0xd2, 0x02, 0xf5, 0xd3, 0xf4, 0xfe, 0x14, 0xf5, 0xd5, 0x09, 0xfa,
  0xd6, 0x01, 0xed, 0xe9, 0x13, 0xf7, 0x2b, 0xf4, 0x16, 0x2a, 0x40, 0x07,
  0x0d, 0x24, 0xd3, 0x02, 0x09, 0xf9, 0xf8, 0x17, 0xf6, 0xeb, 0xe5, 0x01,
  0x17, 0xe9, 0x0e, 0xe0, 0xee, 0x1f, 0xe7, 0x01, 0x2c, 0xdd, 0x16, 0x1b,
  0x26, 0xfd, 0xfc, 0x26, 0xfb, 0xf6, 0xfe, 0x43, 0x16, 0xff, 0x3b, 0x00,
  0xf9, 0x26, 0x1a, 0x00, 0xc6, 0x3a, 0xfa, 0x16, 0x13, 0x05, 0x06, 0x23,
  0xcd, 0x37, 0x21, 0x18, 0x1e, 0xfe, 0x04, 0x12, 0xd1, 0xc9, 0xf2, 0x2a,
  0xaa, 0xd0, 0xe7, 0x32, 0xff, 0xd9, 0x0d, 0xd8, 0xf3, 0x10, 0x1e, 0x0e,
  0xfe, 0xfb, 0xe2, 0xec, 0xf1, 0x0c, 0x1b, 0x14, 0x34, 0xe6, 0xf8, 0x0c,
  0xed, 0x0f, 0xe5, 0x1b, 0xe2, 0x12, 0xf7, 0x0d, 0x10, 0xfb, 0xeb, 0xd9,
  0x21, 0x29, 0xf5, 0x3a, 0xfc, 0x2c, 0x0c, 0x13, 0xf9, 0xfd, 0xde, 0x17,
  0x1a, 0x05, 0x18, 0xf3, 0x28, 0x0a, 0x1f, 0xf8, 0x21, 0xed, 0xf4, 0x0e,
  0xcf, 0xfb, 0x13, 0x09, 0xc1, 0xda, 0xdd, 0xf8, 0xf3, 0xfe, 0x1b, 0x10,
  0x18, 0x07, 0x42, 0x25, 0x13, 0x11, 0x06, 0x26, 0x08, 0x23, 0x1e, 0x1f,
  0xc5, 0x1c, 0x0e, 0xfa, 0x17, 0x07, 0x0b, 0x24, 0x1f, 0xf4, 0x08, 0xeb,
  0xda, 0xfc, 0x00, 0xf3, 0xe6, 0x0c, 0x02, 0xca, 0x21, 0x19, 0x09, 0x0a,
  0xf6, 0x0f, 0x19, 0xf3, 0xf9, 0xea, 0x00, 0xfa, 0xe7, 0x1b, 0x11, 0x11,
  0x05, 0x00, 0xfe, 0xbe, 0x1c, 0x25, 0xed, 0x20, 0x0b, 0x0c, 0xeb, 0x17,
  0xe1, 0x11, 0x13, 0xff, 0xc7, 0xff, 0x8c, 0xf9, 0x19, 0xf2, 0xef, 0xf7,
  0xfb, 0xda, 0xf7, 0xca, 0x37, 0x0a, 0x04, 0x1f, 0xfd, 0x02, 0x1f, 0xd8,
  0x11, 0xe9, 0xda, 0x10, 0x3b, 0x14, 0xf9, 0x02, 0xe3, 0xc0, 0x02, 0xfa,
  0x14, 0xf4, 0xfc, 0xe1, 0x03, 0xe5, 0xed, 0xdb, 0x0f, 0x15, 0xc4, 0xf1,
  0x1c, 0xd4, 0xe2, 0xd8, 0x05, 0xff, 0x18, 0xec, 0xdd, 0x02, 0xf8, 0x1c,
  0xe6, 0x02, 0x08, 0x2e, 0xeb, 0x26, 0x12, 0x28, 0x22, 0xee, 0x0d, 0x02,
  0x08, 0xfb, 0xdd, 0xf4, 0x0c, 0xf6, 0x0e, 0xe1, 0x1a, 0xdc, 0xff, 0xfb,
  0x05, 0x19, 0x2e, 0x07, 0x06, 0xff, 0xee, 0x23, 0xfb, 0xc0, 0xf2, 0xed,
  0xf6, 0xef, 0x0d, 0x01, 0x11, 0x0a, 0x17, 0x1a, 0x11, 0x01, 0xfb, 0x16,
  0x00, 0xec, 0xec, 0xfd, 0x00, 0x06, 0x3a, 0xe9, 0x10, 0x1f, 0xdc, 0xe9,
  0xfc, 0xd9, 0xcc, 0x0c, 0x12, 0x00, 0x1b, 0x08, 0x08, 0xf8, 0xf2, 0xdc,
  0xed, 0x0d, 0x1c, 0x0b, 0xdc, 0xcf, 0x14, 0x10, 0xe0, 0x12, 0x0e, 0xf9,
  0xe9, 0xec, 0x19, 0x28, 0x26, 0x1e, 0x02, 0xe5, 0xf5, 0x14, 0xfc, 0xf0,
  0xdb, 0xf2, 0xd6, 0xf4, 0xf1, 0xf2, 0x23, 0xad, 0x12, 0xfa, 0xe8, 0x1f,
  0x1c, 0x28, 0x27, 0x19, 0x00, 0x12, 0x38, 0xf0, 0xe6, 0x38, 0xe9, 0x13,
  0xe6, 0xfd, 0xe2, 0xdb, 0x09, 0x07, 0x0f, 0xf5, 0x18, 0x1e, 0xdb, 0x08,
  0x2a, 0x07, 0xfb, 0x06, 0x3f, 0x00, 0xdb, 0xf5, 0xf8, 0x13, 0x09, 0x12,
  0x30, 0x1c, 0x0f, 0x24, 0xf0, 0x19, 0x0f, 0x0b, 0x07, 0x1e, 0x1f, 0x2a,
  0xdb, 0xf4, 0x29, 0xf5, 0xf0, 0xb7, 0x0e, 0xff, 0xcd, 0x31, 0xdf, 0x0c,
  0xee, 0xbc, 0x01, 0xe9, 0xf0, 0xb9, 0x0a, 0xc7, 0x0a, 0xfe, 0xfc, 0xc0,
  0x0e, 0xff, 0xe2, 0x0a, 0xff, 0x0d, 0xde, 0xf8, 0x44, 0x26, 0xd5, 0xb8,
  0x28, 0xff, 0x1e, 0xc9, 0xd5, 0x16, 0x21, 0xca, 0x11, 0x06, 0x1c, 0xfe,
  0xed, 0xe0, 0xec, 0x0d, 0xf8, 0x1c, 0x2b, 0x0a, 0x1d, 0xd4, 0x2f, 0x2a,
  0xfa, 0xc3, 0x00, 0xd4, 0xb7, 0x1d, 0xd6, 0x22, 0x01, 0xf2, 0xf6, 0xf8,
  0xea, 0xd3, 0x08, 0xf1, 0x03, 0xce, 0x1c, 0xf9, 0xfd, 0xed, 0x23, 0xfc,
  0x26, 0x17, 0x0d, 0xe9, 0x14, 0x09, 0x17, 0xd0, 0xfc, 0xfe, 0xf2, 0xf2,
  0x05, 0xe4, 0x0d, 0x27, 0x1c, 0xf7, 0xd8, 0x17, 0x19, 0x07, 0xf7, 0xfb,
  0x1c, 0xeb, 0x2d, 0xd9, 0x1d, 0xad, 0xf1, 0x11, 0x20, 0xfa, 0x2a, 0xfd,
  0xeb, 0x15, 0x3c, 0x2e, 0x21, 0xe3, 0x0c, 0x07, 0xef, 0x10, 0x06, 0xf8,
  0x25, 0xd3, 0xf6, 0xfa, 0xce, 0xfc, 0x06, 0xef, 0x22, 0x13, 0x1c, 0xe0,
  0x15, 0xfc, 0x1b, 0xf5, 0x21, 0xf9, 0x01, 0xea, 0x02, 0x0b, 0x12, 0xf7,
  0xeb, 0x17, 0xed, 0xde, 0xe9, 0x24, 0x02, 0xfe, 0xfe, 0xf8, 0xc7, 0xf9,
  0x10, 0x03, 0xfa, 0xf9, 0xfe, 0xf2, 0x1b, 0xb8, 0x01, 0xe8, 0xfe, 0xf0,
  0xf3, 0xf3, 0x32, 0xfa, 0xae, 0x2e, 0x29, 0x03, 0xea, 0xf5, 0x11, 0x26,
  0x48, 0xfb, 0xee, 0xee, 0xed, 0xfa, 0xf3, 0xf4, 0xf6, 0xf7, 0x03, 0xea,
  0x0a, 0x22, 0x13, 0x00, 0x16, 0xe6, 0x1b, 0xe9, 0x1c, 0xc2, 0x02, 0xea,
  0x03, 0x03, 0x02, 0xf8, 0x04, 0xef, 0xd6, 0x06, 0x0d, 0x10, 0x07, 0xf6,
  0xf1, 0x0a, 0xed, 0x12, 0x17, 0x11, 0xfc, 0x0c, 0xb8, 0x03, 0xe3, 0x27,
  0xf3, 0x2d, 0x01, 0xaa, 0xfa, 0x1d, 0x31, 0x2a, 0xfe, 0xf5, 0x37, 0xf4,
  0x14, 0xdf, 0xc0, 0x36, 0x03, 0x14, 0xef, 0x18, 0x17, 0x13, 0x07, 0xfd,
  0xfb, 0x18, 0x07, 0xcf, 0x0b, 0x0b, 0xec, 0xd4, 0xf0, 0xfa, 0xf9, 0xc9,
  0x3e, 0xfb, 0x0f, 0xec, 0x23, 0xe9, 0x09, 0x18, 0x04, 0xde, 0xf5, 0x21,
  0xff, 0xe5, 0x1d, 0xf1, 0x0b, 0x0c, 0xd9, 0x11, 0xf2, 0x16, 0x10, 0x01,
  0xe7, 0x0c, 0xeb, 0x0d, 0xf5, 0x09, 0xf0, 0x24, 0xea, 0x04, 0xf6, 0x15,
  0x29, 0xc4, 0xe8, 0xe1, 0x19, 0x1d, 0xe5, 0x19, 0xfc, 0x05, 0xb4, 0x24,
  0xe3, 0xd5, 0xfd, 0xee, 0xe5, 0xfe, 0x05, 0xfd, 0x11, 0xf8, 0x29, 0xf5,
  0xf2, 0x1d, 0xde, 0x0b, 0xfc, 0xe2, 0x24, 0xf7, 0xec, 0x1a, 0x24, 0x24,
  0xf5, 0xce, 0xcf, 0x00, 0xe6, 0xc7, 0x26, 0x0e, 0xdb, 0x09, 0x08, 0xfe,
  0x0d, 0xcf, 0xc7, 0xfa, 0x12, 0x28, 0xfd, 0x40, 0xdd, 0xe3, 0x21, 0x03,
  0x0f, 0x23, 0x1a, 0x14, 0xce, 0xf0, 0x1a, 0x1f, 0xf2, 0xd7, 0xfc, 0x0b,
  0xf7, 0x25, 0x0d, 0x03, 0xc2, 0xfc, 0xfa, 0xea, 0xd8, 0x05, 0xf3, 0xee,
  0x07, 0xe8, 0xf2, 0x18, 0x15, 0xfb, 0x2e, 0xf9, 0x16, 0x0e, 0x03, 0xf5,
  0xd4, 0x28, 0x2d, 0xfd, 0x15, 0xf9, 0xcc, 0xf6, 0x06, 0xe8, 0xfa, 0x15,
  0x02, 0x18, 0xe5, 0x12, 0x0c, 0xef, 0xf3, 0xee, 0xf1, 0xdf, 0xf6, 0xcf,
  0x10, 0xd1, 0x12, 0x16, 0xeb, 0x0a, 0x22, 0xfe, 0xf6, 0x12, 0x02, 0x09,
  0x15, 0xd0, 0xf6, 0x3f, 0x0a, 0x03, 0x12, 0x30, 0x18, 0xe8, 0xfd, 0xe8,
  0xf6, 0x23, 0xea, 0x0b, 0x06, 0x05, 0x16, 0xa3, 0x17, 0xfa, 0xac, 0xb2,
  0xce, 0xd9, 0xf9, 0xd3, 0xfe, 0xc4, 0xf1, 0x04, 0xcf, 0x37, 0xdb, 0x01,
  0xd0, 0xff, 0x18, 0xb1, 0xf3, 0x14, 0x28, 0xe6, 0x39, 0x01, 0x29, 0xe1,
  0x2c, 0xfc, 0x16, 0xdb, 0xf3, 0x06, 0x39, 0xf4, 0xdd, 0x1e, 0x05, 0x1a,
  0x14, 0x17, 0xee, 0x11, 0x0a, 0x11, 0xfe, 0xef, 0x17, 0xd7, 0x1b, 0x09,
  0x14, 0xd1, 0xd2, 0x21, 0x0c, 0x16, 0xfa, 0xea, 0xf6, 0x04, 0xf0, 0xd7,
  0xd5, 0x3b, 0xcf, 0x08, 0xe5, 0x24, 0x3f, 0x3e, 0xcb, 0x30, 0x08, 0x42,
  0x3e, 0xf0, 0x07, 0x1d, 0x22, 0x0a, 0xf4, 0xfa, 0xca, 0xe9, 0xfe, 0x01,
  0xdb, 0x02, 0x2e, 0xb5, 0x0a, 0xf7, 0x10, 0x0d, 0xfa, 0x03, 0xf9, 0xcd,
  0xcd, 0xfb, 0x17, 0x0a, 0xfb, 0x07, 0xf0, 0xed, 0x08, 0xff, 0x17, 0x26,
  0xfb, 0x11, 0xf6, 0xd7, 0xdc, 0x0b, 0x01, 0x09, 0x37, 0xea, 0x17, 0x1c,
  0x0c, 0xf1, 0xfd, 0x44, 0x0a, 0xf8, 0x30, 0x24, 0x12, 0xf0, 0xf8, 0x01,
  0xf7, 0x30, 0xf3, 0xd9, 0x00, 0x04, 0xd7, 0xfc, 0xfd, 0xe8, 0x0a, 0xec,
  0x0e, 0x1b, 0xff, 0x33, 0x1e, 0x14, 0xe3, 0xf2, 0xe1, 0xf7, 0x26, 0xfc,
  0x37, 0xf0, 0x00, 0xd9, 0xda, 0x05, 0x17, 0xe1, 0x07, 0xf7, 0x2e, 0x4b,
  0x0b, 0xe5, 0x26, 0x05, 0x25, 0xe2, 0xeb, 0xfc, 0x26, 0x17, 0xe0, 0x13,
  0x05, 0xba, 0x21, 0xef, 0x1c, 0x0b, 0xf0, 0xf5, 0x11, 0x1a, 0x01, 0xfd,
  0x13, 0x4d, 0x15, 0x07, 0x1a, 0x04, 0x21, 0xe3, 0x30, 0xf8, 0xfc, 0x1c,
  0x1b, 0xf8, 0x1a, 0x22, 0xea, 0xe1, 0x09, 0x25, 0xf4, 0x0e, 0xe3, 0x25,
  0xf6, 0xa7, 0x0b, 0xd1, 0xcb, 0x01, 0xd7, 0x15, 0x14, 0x20, 0x13, 0xf4,
  0x0b, 0x09, 0x05, 0xf4, 0xe0, 0x18, 0xe7, 0x05, 0x14, 0xe7, 0x10, 0x13,
  0xf8, 0xff, 0xf5, 0xe4, 0xfc, 0xfd, 0xff, 0x17, 0x1b, 0x0f, 0x16, 0x0f,
  0x1d, 0xff, 0x15, 0xf1, 0xf6, 0x14, 0xf1, 0xed, 0x09, 0x1f, 0x20, 0xe1,
  0x17, 0xed, 0xe2, 0xde, 0x32, 0xdf, 0xf0, 0x09, 0x18, 0x31, 0x0b, 0x13,
  0x21, 0x20, 0x39, 0xd2, 0x18, 0xf4, 0xf9, 0x1a, 0x03, 0xe6, 0xe5, 0xf6,
  0xf6, 0x15, 0x45, 0xf3, 0x08, 0x05, 0xeb, 0x12, 0x17, 0x01, 0x2c, 0x0d,
  0xf2, 0xaa, 0xfd, 0x29, 0xe3, 0x29, 0x05, 0x07, 0x07, 0xf5, 0xe1, 0xfc,
  0x26, 0x2e, 0xff, 0xa7, 0x2b, 0xe2, 0x0d, 0xef, 0xf1, 0xfd, 0xcb, 0xdf,
  0x19, 0x3d, 0xf0, 0xc1, 0x02, 0x00, 0xf8, 0xe4, 0x1c, 0xea, 0xfc, 0xf7,
  0x0b, 0x01, 0x11, 0x0b, 0x17, 0x2c, 0x06, 0xd6, 0xfe, 0x1c, 0x10, 0x05,
  0x01, 0x09, 0xe5, 0xc3, 0xe2, 0x15, 0x15, 0xe5, 0x31, 0x16, 0xf9, 0xff,
  0x3d, 0x00, 0x27, 0x0d, 0x2f, 0xe0, 0xe6, 0xf3, 0xf3, 0x00, 0xc5, 0x03,
  0xd1, 0xf9, 0x1b, 0xe7, 0x13, 0xe1, 0x00, 0x13, 0x0b, 0x16, 0xf0, 0xf0,
  0x13, 0xee, 0xf7, 0xf4, 0x07, 0x0f, 0x28, 0xf1, 0x26, 0xf5, 0xe7, 0xf7,
  0x0b, 0xeb, 0xe5, 0xef, 0xf9, 0x3a, 0x07, 0x20, 0x08, 0x1b, 0x16, 0xf9,
  0x26, 0x04, 0x01, 0x24, 0x59, 0x11, 0xfc, 0xee, 0xdd, 0xc5, 0xff, 0xfe,
  0xfa, 0xcd, 0x05, 0x04, 0xf1, 0x18, 0x21, 0xe6, 0x31, 0x19, 0xed, 0xf8,
  0x1f, 0x1e, 0xe4, 0x09, 0x0c, 0xde, 0x1d, 0x02, 0xf0, 0x39, 0x17, 0x02,
  0xee, 0xf2, 0x01, 0x17, 0x11, 0xc5, 0x17, 0xfe, 0x0b, 0xf9, 0x09, 0xe7,
  0x3c, 0xf1, 0xfe, 0x0b, 0xdc, 0x1d, 0x1c, 0x11, 0xd2, 0xbb, 0xf7, 0x2e,
  0xd3, 0x24, 0xf0, 0x23, 0xdc, 0x0b, 0x12, 0x27, 0xfc, 0xfa, 0x12, 0x02,
  0x22, 0x07, 0xe8, 0x30, 0x18, 0xe2, 0x10, 0x18, 0xf0, 0x1d, 0xf5, 0x15,
  0xfa, 0x26, 0x04, 0xde, 0xd4, 0xd1, 0xe4, 0xca, 0xf5, 0x08, 0xdc, 0xe1,
  0xfa, 0xed, 0xc5, 0x30, 0xe1, 0xf1, 0xec, 0x33, 0xea, 0xee, 0x11, 0xd1,
  0xf7, 0x0a, 0x17, 0x3f, 0xce, 0xe6, 0xe2, 0xf3, 0x27, 0x1f, 0x25, 0xd0,
  0x16, 0x16, 0x05, 0xd8, 0xe5, 0x15, 0xf0, 0x27, 0x0d, 0xec, 0x21, 0x0d,
  0xd6, 0xa9, 0x0b, 0x17, 0x19, 0xf3, 0x0a, 0xe7, 0xf2, 0x17, 0x02, 0x00,
  0xb2, 0xdf, 0xfd, 0x12, 0x19, 0x01, 0xf9, 0x10, 0x02, 0x0f, 0x00, 0x08,
  0x18, 0xe0, 0xe5, 0x17, 0x27, 0x15, 0xf2, 0x02, 0xfc, 0x08, 0x14, 0x1a,
  0x01, 0x08, 0x08, 0xf5, 0x04, 0x0f, 0xf9, 0xfb, 0x0a, 0xed, 0xe2, 0x14,
  0x0d, 0x06, 0x00, 0x24, 0x1e, 0xde, 0xed, 0x19, 0x0e, 0x0b, 0x0d, 0x04,
  0xe6, 0xe4, 0x10, 0xec, 0x0d, 0x2c, 0x07, 0x3c, 0xed, 0x0f, 0xd7, 0x10,
  0x0a, 0xe4, 0xc9, 0xdb, 0x2d, 0x07, 0xe6, 0x1b, 0xec, 0x0a, 0x19, 0xf4,
  0xeb, 0x03, 0x0b, 0xe8, 0x3c, 0x16, 0xeb, 0x21, 0xed, 0x20, 0xdb, 0x15,
  0xff, 0xfc, 0xea, 0x01, 0xe4, 0xd5, 0x1d, 0xf8, 0x25, 0xe5, 0xf7, 0xde,
  0xe2, 0xf5, 0x07, 0x00, 0x2b, 0x05, 0x26, 0xe5, 0x1f, 0x2f, 0x0c, 0xd3,
  0x1a, 0xed, 0xe9, 0xe3, 0xf8, 0xf2, 0x0c, 0xc8, 0x08, 0x13, 0xec, 0xd5,
  0xfc, 0x12, 0x0b, 0x44, 0xea, 0xc1, 0x03, 0x16, 0xf6, 0xee, 0xfd, 0xe0,
  0xf3, 0x0e, 0x21, 0xfe, 0xf8, 0xd4, 0x13, 0xf7, 0x15, 0x0c, 0x01, 0x2e,
  0xf1, 0x10, 0x1d, 0x2e, 0xed, 0x3a, 0xf0, 0x36, 0x20, 0x15, 0x1d, 0x27,
  0xee, 0x08, 0x25, 0x07, 0x36, 0xf5, 0x11, 0x1e, 0xee, 0xe6, 0xfb, 0xf7,
  0xe4, 0x20, 0xdd, 0x0e, 0xe5, 0xd3, 0xb3, 0xad, 0xde, 0xec, 0xf4, 0xf8,
  0x08, 0x1a, 0x06, 0x2a, 0xf3, 0x0a, 0x15, 0x28, 0xf9, 0xd7, 0x03, 0x09,
  0x07, 0xe6, 0xd3, 0x18, 0xea, 0x43, 0xf4, 0x2a, 0x00, 0x19, 0xf6, 0xe0,
  0x17, 0x01, 0x03, 0xe4, 0xcf, 0x1f, 0xeb, 0xfa, 0xf9, 0x11, 0xfe, 0x29,
  0xe4, 0xf3, 0x2e, 0xee, 0x13, 0xe0, 0xe6, 0x01, 0xa1, 0x12, 0x0e, 0xfd,
  0xe9, 0x00, 0x4b, 0x18, 0x30, 0x18, 0xf0, 0xf8, 0x2e, 0x0b, 0xc8, 0x2e,
  0x0d, 0x1a, 0xfc, 0xeb, 0x22, 0xf7, 0x12, 0xd0, 0xf2, 0x0f, 0x2c, 0xcd,
  0x03, 0x21, 0x10, 0xf5, 0xc8, 0xf1, 0xdf, 0x08, 0x20, 0xde, 0x25, 0xfa,
  0x43, 0xfa, 0xeb, 0xb9, 0xe9, 0x19, 0xac, 0x55, 0x09, 0x0c, 0x28, 0x0f,
  0x3d, 0x0b, 0xf1, 0xe4, 0x1b, 0xfd, 0xcf, 0x17, 0x2b, 0x09, 0x28, 0xea,
  0xd2, 0x21, 0xf1, 0x12, 0xb1, 0x0c, 0xbc, 0xef, 0xf3, 0x43, 0x04, 0xec,
  0x3c, 0xe2, 0x38, 0x0a, 0x15, 0x00, 0x05, 0xf4, 0xca, 0xf9, 0xf7, 0x57,
  0x1c, 0x07, 0x0b, 0xf3, 0xf1, 0xfb, 0xf0, 0x18, 0xea, 0x19, 0x20, 0x08,
  0x06, 0xfd, 0x0c, 0xe2, 0x0d, 0x1b, 0xd0, 0x0d, 0x18, 0x1c, 0x06, 0x2b,
  0xdf, 0x23, 0xe6, 0xc0, 0xf8, 0x11, 0x24, 0xf3, 0x26, 0x0e, 0x17, 0x18,
  0x11, 0x1e, 0x00, 0x0f, 0x04, 0xd8, 0x05, 0x2c, 0x27, 0xe6, 0x17, 0x0b,
  0xf1, 0x05, 0xda, 0x3a, 0xef, 0x16, 0xff, 0xf5, 0x06, 0x18, 0x03, 0x28,
  0x01, 0xfd, 0xcf, 0x0a, 0xf9, 0xd7, 0xdd, 0x01, 0xef, 0x0d, 0xfc, 0xfa,
  0x05, 0x0f, 0x0d, 0x1e, 0x47, 0xf6, 0xed, 0xdb, 0x22, 0x25, 0xcb, 0x17,
  0xf2, 0xbe, 0x14, 0x14, 0xfe, 0x12, 0x01, 0x21, 0xef, 0xfb, 0x22, 0xe4,
  0x0d, 0xcf, 0xea, 0x05, 0x18, 0x26, 0x0a, 0xd6, 0xf1, 0xd5, 0x26, 0x11,
  0xf5, 0x16, 0x1a, 0xfe, 0xf0, 0x10, 0x15, 0x23, 0xee, 0x13, 0x0e, 0x42,
  0xe7, 0xd8, 0x1a, 0x22, 0x01, 0x18, 0x20, 0xf9, 0xf8, 0x16, 0xfb, 0x34,
  0x0a, 0x1a, 0xeb, 0x56, 0x11, 0x08, 0x15, 0xd7, 0x02, 0xe8, 0x06, 0xf6,
  0x1d, 0xe9, 0xd2, 0x15, 0x1f, 0x2b, 0x04, 0x26, 0xda, 0x39, 0xbd, 0x23,
  0xf1, 0x23, 0xd6, 0x13, 0xbc, 0x60, 0x0e, 0x23, 0xfd, 0x01, 0xfd, 0x0f,
  0xf2, 0xe1, 0x0c, 0x26, 0x00, 0xef, 0xf4, 0x18, 0xd3, 0x10, 0x2c, 0x35,
  0xd2, 0xd6, 0x0e, 0xea, 0x0c, 0xdb, 0x12, 0xfd, 0xe9, 0xf1, 0x0e, 0xe2,
  0x16, 0x09, 0xff, 0x18, 0xf0, 0xf7, 0x0f, 0xf5, 0xff, 0x49, 0xf6, 0xf2,
  0xe9, 0xeb, 0x08, 0xec, 0xb7, 0x1c, 0xf0, 0xe6, 0xed, 0xe9, 0xd6, 0xc1,
  0x20, 0xf5, 0xe9, 0x21, 0x29, 0xcb, 0x2d, 0x0d, 0xea, 0xfb, 0xef, 0xec,
  0x03, 0x23, 0x06, 0x18, 0xf2, 0xe6, 0x10, 0xdc, 0x4e, 0x1d, 0xf3, 0xe2,
  0x32, 0xef, 0xfd, 0xef, 0xdf, 0x32, 0xf7, 0x05, 0x09, 0x17, 0x02, 0x12,
  0xf1, 0xf8, 0x13, 0x1a, 0xe4, 0xe1, 0x04, 0xff, 0x09, 0xee, 0xfc, 0xf3,
  0xea, 0xda, 0x03, 0xd1, 0x04, 0x25, 0xc7, 0x27, 0xfc, 0x22, 0xf0, 0x1f,
  0x2a, 0xe5, 0x22, 0xfc, 0xcb, 0xfc, 0xfa, 0xe9, 0x00, 0xd3, 0x1a, 0xd0,
  0x17, 0x1c, 0x11, 0x0a, 0xf2, 0xf8, 0xef, 0x19, 0xf5, 0xe5, 0xe3, 0x2b,
  0x1a, 0xdf, 0x2d, 0x15, 0x19, 0xf4, 0xfe, 0x2f, 0x14, 0x27, 0x1c, 0x12,
  0xe9, 0xf8, 0x28, 0x2a, 0x09, 0x31, 0x1b, 0xf0, 0xad, 0x0e, 0xfd, 0x12,
  0xec, 0x07, 0xed, 0x25, 0x18, 0x4e, 0xd7, 0x02, 0x0b, 0x07, 0x1c, 0xf1,
  0x31, 0x31, 0x00, 0xba, 0x36, 0xec, 0xce, 0xe5, 0xce, 0x47, 0xe2, 0x00,
  0x2c, 0xf6, 0x1e, 0xf1, 0xfc, 0x0e, 0x1f, 0xf7, 0x49, 0x0e, 0xcf, 0x01,
  0xc4, 0xd8, 0x1a, 0x00, 0x09, 0x03, 0x21, 0xef, 0x24, 0xe8, 0xec, 0xf3,
  0xf5, 0x14, 0x0d, 0x05, 0xea, 0xef, 0x16, 0xe2, 0x0b, 0xe9, 0xf7, 0x10,
  0xf5, 0xf0, 0x2f, 0x0e, 0x0b, 0x0c, 0x01, 0x26, 0xba, 0x1c, 0x20, 0xf5,
  0x24, 0xb6, 0xef, 0x06, 0x01, 0xfe, 0xf1, 0xe2, 0xce, 0xed, 0x91, 0x18,
  0x39, 0x16, 0x10, 0x1b, 0x27, 0x01, 0x14, 0x0f, 0x07, 0x14, 0xf5, 0x18,
  0x10, 0x22, 0x2a, 0x05, 0x24, 0x05, 0xef, 0xbb, 0x30, 0x04, 0xbf, 0x16,
  0xfd, 0x05, 0x28, 0xeb, 0x10, 0x28, 0x15, 0xee, 0xf5, 0x04, 0x09, 0x0b,
  0x2d, 0x0c, 0x16, 0x23, 0xfc, 0xfc, 0xeb, 0xfd, 0x14, 0xe4, 0xea, 0x14,
  0x1c, 0xed, 0xfc, 0xe2, 0xf4, 0xf6, 0x01, 0xb5, 0x11, 0x14, 0xf0, 0x26,
  0xfe, 0x13, 0x25, 0xf2, 0x02, 0x0c, 0xe9, 0x37, 0xfd, 0x00, 0x03, 0x20,
  0x08, 0x0c, 0x31, 0xfc, 0x0e, 0xdb, 0x24, 0x23, 0x55, 0xd6, 0x0e, 0xba,
  0x23, 0xed, 0x1d, 0x11, 0xf0, 0x1a, 0xfb, 0x09, 0xc3, 0x1c, 0x24, 0x0a,
  0x00, 0xf7, 0x06, 0x0f, 0x10, 0x32, 0x05, 0xea, 0xed, 0x0c, 0x12, 0x14,
  0x15, 0xd8, 0x21, 0xff, 0x17, 0x03, 0xf6, 0x33, 0xfd, 0x1c, 0xde, 0xf4,
  0xee, 0xe8, 0x1d, 0x05, 0xff, 0xfa, 0x1a, 0xf6, 0xf0, 0x07, 0x0f, 0x0e,
  0xe8, 0xe9, 0x0b, 0xec, 0x20, 0x16, 0x36, 0xf1, 0x1f, 0x12, 0x42, 0x0f,
  0x20, 0xfc, 0xd6, 0xef, 0x27, 0xee, 0x1d, 0xe7, 0x0f, 0x04, 0xec, 0xfc,
  0x0d, 0x17, 0x07, 0x01, 0x0f, 0xe4, 0x09, 0xe5, 0x27, 0xf3, 0x11, 0x19,
  0xbf, 0x21, 0x0b, 0x2c, 0xc8, 0xed, 0xe1, 0x1a, 0x24, 0x21, 0xbc, 0xe2,
  0xf4, 0x00, 0x21, 0x04, 0xe2, 0x17, 0xed, 0xbd, 0x43, 0xef, 0xd7, 0xfb,
  0x03, 0x2c, 0xdb, 0x14, 0x15, 0x24, 0x02, 0x14, 0xfc, 0xf5, 0x24, 0xff,
  0x25, 0xf9, 0xde, 0xf0, 0x1f, 0xfb, 0x12, 0xd8, 0xff, 0xf0, 0x0d, 0xf7,
  0x15, 0x25, 0xe1, 0xe0, 0x16, 0xd0, 0xe8, 0xce, 0xe2, 0xfa, 0xc8, 0x1c,
  0xde, 0x86, 0xff, 0xff, 0x04, 0x00, 0x00, 0x00, 0x40, 0x00, 0x00, 0x00,
  0x37, 0x52, 0x54, 0x4b, 0x2b, 0xe8, 0xde, 0x5b, 0x62, 0x4f, 0x12, 0x5e,
  0x58, 0x52, 0x5e, 0x36, 0x4c, 0x51, 0x36, 0x3c, 0x5d, 0x64, 0x0c, 0x50,
  0x61, 0x4c, 0x5d, 0x5d, 0xce, 0x48, 0x02, 0x5e, 0x25, 0x4d, 0x60, 0x5c,
  0x63, 0x66, 0x5a, 0x44, 0x4c, 0x64, 0x49, 0x48, 0x47, 0x80, 0x43, 0x60,
  0x59, 0x50, 0x40, 0x5e, 0x3c, 0x38, 0x51, 0x60, 0xe8, 0x26, 0x58, 0x53,
  0x57, 0x5f, 0x48, 0x68, 0x2a, 0x87, 0xff, 0xff, 0x04, 0x00, 0x00, 0x00,
  0x40, 0x00, 0x00, 0x00, 0x40, 0x2d, 0x5e, 0x58, 0x1f, 0xb2, 0xdf, 0x15,
  0x1b, 0x35, 0xd5, 0x0c, 0x75, 0xf3, 0x05, 0x13, 0x2a, 0x0e, 0x0f, 0x20,
  0x1f, 0xf6, 0x3d, 0x06, 0x41, 0x18, 0x7f, 0x26, 0xcd, 0x12, 0xdb, 0x72,
  0xf4, 0x24, 0x42, 0x0d, 0x13, 0x46, 0xf7, 0xf0, 0xe7, 0xea, 0x1c, 0xf1,
  0xde, 0xb9, 0x02, 0x5c, 0x35, 0x2b, 0xeb, 0x31, 0x18, 0x17, 0x6e, 0xe6,
  0xef, 0xbf, 0x53, 0xfb, 0x16, 0x23, 0xdd, 0x38, 0x76, 0x87, 0xff, 0xff,
  0x04, 0x00, 0x00, 0x00, 0x00, 0x01, 0x00, 0x00, 0x00, 0x00, 0x00, 0x00,
  0x00, 0x00, 0x00, 0x00, 0x00, 0x00, 0x00, 0x00, 0x00, 0x00, 0x00, 0x00,
  0x00, 0x00, 0x00, 0x00, 0x00, 0x00, 0x00, 0x00, 0x00, 0x00, 0x00, 0x00,
  0x00, 0x00, 0x00, 0x00, 0x00, 0x00, 0x00, 0x00, 0x00, 0x00, 0x00, 0x00,
  0x00, 0x00, 0x00, 0x00, 0x00, 0x00, 0x00, 0x00, 0x00, 0x00, 0x00, 0x00,
  0x00, 0x00, 0x00, 0x00, 0x00, 0x00, 0x00, 0x00, 0x00, 0x00, 0x00, 0x00,
  0x00, 0x00, 0x00, 0x00, 0x00, 0x00, 0x00, 0x00, 0x00, 0x00, 0x00, 0x00,
  0x00, 0x00, 0x00, 0x00, 0x00, 0x00, 0x00, 0x00, 0x00, 0x00, 0x00, 0x00,
  0x00, 0x00, 0x00, 0x00, 0x00, 0x00, 0x00, 0x00, 0x00, 0x00, 0x00, 0x00,
  0x00, 0x00, 0x00, 0x00, 0x00, 0x00, 0x00, 0x00, 0x00, 0x00, 0x00, 0x00,
  0x00, 0x00, 0x00, 0x00, 0x00, 0x00, 0x00, 0x00, 0x00, 0x00, 0x00, 0x00,
  0x00, 0x00, 0x00, 0x00, 0x00, 0x00, 0x00, 0x00, 0x00, 0x00, 0x00, 0x00,
  0x00, 0x00, 0x00, 0x00, 0x00, 0x00, 0x00, 0x00, 0x00, 0x00, 0x00, 0x00,
  0x00, 0x00, 0x00, 0x00, 0x00, 0x00, 0x00, 0x00, 0x00, 0x00, 0x00, 0x00,
  0x00, 0x00, 0x00, 0x00, 0x00, 0x00, 0x00, 0x00, 0x00, 0x00, 0x00, 0x00,
  0x00, 0x00, 0x00, 0x00, 0x00, 0x00, 0x00, 0x00, 0x00, 0x00, 0x00, 0x00,
  0x00, 0x00, 0x00, 0x00, 0x00, 0x00, 0x00, 0x00, 0x00, 0x00, 0x00, 0x00,
  0x00, 0x00, 0x00, 0x00, 0x00, 0x00, 0x00, 0x00, 0x00, 0x00, 0x00, 0x00,
  0x00, 0x00, 0x00, 0x00, 0x00, 0x00, 0x00, 0x00, 0x00, 0x00, 0x00, 0x00,
  0x00, 0x00, 0x00, 0x00, 0x00, 0x00, 0x00, 0x00, 0x00, 0x00, 0x00, 0x00,
  0x00, 0x00, 0x00, 0x00, 0x00, 0x00, 0x00, 0x00, 0x00, 0x00, 0x00, 0x00,
  0x00, 0x00, 0x00, 0x00, 0x00, 0x00, 0x00, 0x00, 0x00, 0x00, 0x00, 0x00,
  0x82, 0x88, 0xff, 0xff, 0x04, 0x00, 0x00, 0x00, 0x00, 0x48, 0x00, 0x00,
  0xf7, 0x16, 0x02, 0x0f, 0xeb, 0x04, 0xf6, 0xf7, 0xeb, 0xf2, 0x17, 0x11,
  0xf1, 0x00, 0xfd, 0x00, 0xfa, 0xf8, 0x0a, 0xf8, 0xf1, 0xfe, 0xed, 0xfc,
  0x14, 0xea, 0x06, 0xee, 0x03, 0x07, 0x14, 0x04, 0xfa, 0xe2, 0x13, 0x05,
  0xe7, 0x17, 0x0b, 0x06, 0xb9, 0xb0, 0x03, 0x00, 0xc1, 0x07, 0xe3, 0x08,
  0xc3, 0xf0, 0x07, 0x14, 0x0d, 0xe7, 0x03, 0xf4, 0x38, 0x2e, 0x02, 0xfb,
  0xe4, 0x24, 0x2f, 0x0f, 0xfa, 0xf6, 0xff, 0x12, 0xeb, 0x0f, 0xf9, 0x0b,
  0x0b, 0xec, 0x07, 0xef, 0xfc, 0x14, 0x0f, 0x02, 0x04, 0x17, 0x17, 0x0d,
  0x04, 0xec, 0x07, 0x08, 0x16, 0xeb, 0x13, 0x0e, 0xec, 0xe9, 0xee, 0x14,
  0xfd, 0x12, 0xf2, 0xef, 0x15, 0x00, 0xf8, 0xe9, 0x00, 0x0a, 0x16, 0x17,
  0xf1, 0xed, 0xf6, 0xff, 0xfd, 0x05, 0x15, 0x0c, 0x04, 0xf3, 0xf8, 0xf8,
  0xfe, 0xfb, 0xea, 0xea, 0x01, 0x00, 0x04, 0x10, 0xc7, 0x5c, 0xa8, 0xfa,
  0x0b, 0xd4, 0x24, 0xf2, 0x60, 0x16, 0x09, 0x18, 0xcd, 0x0b, 0x05, 0x10,
  0xd0, 0x21, 0xad, 0x36, 0x1d, 0x42, 0xff, 0xd9, 0xd1, 0xe4, 0xda, 0xe5,
  0xe7, 0x0c, 0xf8, 0xe3, 0x15, 0x07, 0xfc, 0x01, 0xfa, 0xf0, 0x11, 0x12,
  0xef, 0xf1, 0x14, 0xf7, 0x13, 0xfc, 0xec, 0xfd, 0xfb, 0xf7, 0x00, 0x14,
  0x0c, 0xea, 0xf2, 0x0e, 0x06, 0x04, 0x05, 0xfa, 0xf7, 0x0f, 0xef, 0x14,
  0xfd, 0x15, 0xf7, 0xec, 0xf3, 0xea, 0xf9, 0x02, 0x14, 0xf2, 0x16, 0xee,
  0xf6, 0xea, 0xfb, 0xea, 0xeb, 0x11, 0xf3, 0xee, 0xf9, 0xec, 0x0a, 0xf8,
  0xf3, 0x0c, 0x11, 0x02, 0x06, 0x17, 0x10, 0x05, 0xe1, 0x63, 0x07, 0xff,
  0x33, 0xdb, 0x82, 0xa7, 0x39, 0x3f, 0xd4, 0xef, 0xb4, 0xaf, 0xdd, 0x18,
  0xc8, 0x81, 0xf8, 0xda, 0x9b, 0xca, 0xc4, 0xdf, 0xd4, 0x9c, 0xfc, 0xd0,
  0x2d, 0xfa, 0xf7, 0xe5, 0xf0, 0x15, 0xf0, 0x01, 0xff, 0x16, 0xe8, 0xf9,
  0xfb, 0x0a, 0x0a, 0xeb, 0xfe, 0xf0, 0x09, 0xfa, 0xeb, 0x14, 0xfa, 0x13,
  0x0f, 0x0e, 0x15, 0xff, 0xf9, 0xee, 0xf7, 0xf8, 0xfa, 0xf4, 0xfd, 0x05,
  0xfd, 0xef, 0xf4, 0xf4, 0xf5, 0x11, 0x0f, 0x09, 0x00, 0xfb, 0x0d, 0x01,
  0x0c, 0x0f, 0x10, 0x10, 0x08, 0xfc, 0x11, 0x00, 0xfc, 0x10, 0x11, 0xf7,
  0x06, 0xfe, 0x0b, 0xf8, 0x08, 0x00, 0x02, 0x0c, 0x39, 0xe6, 0xee, 0x19,
  0x1e, 0x02, 0xe9, 0xf2, 0xdb, 0x19, 0x1a, 0x1e, 0xfa, 0x0c, 0x0d, 0xe0,
  0x24, 0xec, 0x2a, 0xf4, 0xce, 0xda, 0x20, 0x10, 0xe7, 0xe7, 0x13, 0xf5,
  0x00, 0xed, 0x49, 0xd9, 0xef, 0xfd, 0xf0, 0xf3, 0xf3, 0xf0, 0x03, 0xfa,
  0x02, 0x01, 0xfa, 0x07, 0xf2, 0x04, 0x05, 0xf8, 0x06, 0x0c, 0xef, 0x02,
  0xf5, 0x11, 0x11, 0x07, 0xfe, 0x0c, 0xf3, 0xf3, 0x04, 0xef, 0x05, 0xfb,
  0x02, 0x03, 0x0d, 0x0a, 0xfc, 0xfd, 0x10, 0xf6, 0x07, 0xf5, 0xff, 0xef,
  0xf2, 0x08, 0x0d, 0xfa, 0xf5, 0xef, 0xfc, 0xfc, 0xfe, 0x0d, 0x06, 0xfe,
  0x05, 0xf1, 0x0d, 0xf9, 0x0a, 0x0f, 0xfa, 0x08, 0x13, 0x21, 0xe9, 0x32,
  0x07, 0xd6, 0xb9, 0xfe, 0xc3, 0x0a, 0x24, 0xf6, 0xec, 0xed, 0xba, 0xc4,
  0x20, 0xfb, 0xc6, 0xf3, 0xff, 0x2a, 0x63, 0x20, 0xf7, 0xc3, 0x0c, 0xfa,
  0x1b, 0xcb, 0xf3, 0x23, 0xee, 0xf1, 0x0e, 0xfd, 0x11, 0xee, 0xf6, 0xfc,
  0xfb, 0x0f, 0x0f, 0xfc, 0xf3, 0x0e, 0x04, 0x0b, 0xfe, 0x02, 0xee, 0xfd,
  0xf2, 0x02, 0x0a, 0xee, 0xf8, 0x05, 0x02, 0x03, 0x09, 0xf2, 0x02, 0xff,
  0xf7, 0x05, 0x06, 0x08, 0x0c, 0x06, 0xf3, 0xf2, 0x0a, 0xee, 0x02, 0x0a,
  0xfd, 0x12, 0x04, 0x02, 0x10, 0x0b, 0xf1, 0x0e, 0xf9, 0xf7, 0xf6, 0xfd,
  0xfc, 0xff, 0xf2, 0xfc, 0x0a, 0xfc, 0x0e, 0xfc, 0xe1, 0x2e, 0xd6, 0x17,
  0x12, 0xa2, 0x0c, 0x01, 0x00, 0xec, 0xf9, 0xfb, 0x3e, 0xdb, 0xe1, 0x32,
  0xed, 0xe1, 0x81, 0x0c, 0xd1, 0x12, 0xca, 0x0e, 0x23, 0xc4, 0xec, 0xfc,
  0x25, 0xd5, 0xd9, 0xfc, 0x0a, 0xf1, 0xfa, 0x10, 0x08, 0x0c, 0x08, 0x02,
  0xf5, 0x03, 0x04, 0xfb, 0xff, 0xf2, 0xee, 0x07, 0x0b, 0xef, 0x0f, 0xfb,
  0x07, 0x04, 0xff, 0xf4, 0x05, 0xfa, 0x0b, 0xf5, 0x06, 0xfa, 0x11, 0xff,
  0x04, 0xfd, 0x0f, 0xfb, 0xf5, 0x0c, 0xf9, 0x06, 0x07, 0xf0, 0xfe, 0xfd,
  0xf1, 0xf0, 0x08, 0x0e, 0xed, 0x11, 0x06, 0xf1, 0x03, 0x0d, 0xed, 0xed,
  0xf0, 0x05, 0x11, 0x02, 0xed, 0x0b, 0x0c, 0xf9, 0xf3, 0x18, 0xdd, 0x20,
  0xbb, 0xd1, 0x0d, 0x81, 0xfd, 0xe3, 0x05, 0xe0, 0x91, 0xf4, 0x0a, 0x22,
  0xf9, 0xda, 0xd3, 0x02, 0x20, 0xe3, 0x2a, 0xdf, 0x31, 0xfd, 0x08, 0xed,
  0x24, 0xf6, 0xd1, 0xf8, 0x04, 0xee, 0xfc, 0xfe, 0xfe, 0xf7, 0xfb, 0xf6,
  0xfd, 0xf0, 0x0d, 0xf0, 0xf9, 0xf8, 0x0e, 0xfd, 0xf7, 0xf1, 0x05, 0xf5,
  0xfe, 0xf7, 0xed, 0xf8, 0xfc, 0xf0, 0xed, 0xee, 0xfc, 0x00, 0x12, 0xef,
  0x02, 0x11, 0x02, 0x00, 0xee, 0xfb, 0x10, 0xf7, 0x0b, 0x13, 0xfd, 0xf1,
  0xed, 0x06, 0xfb, 0x04, 0xf2, 0xfe, 0x05, 0x11, 0x0e, 0x0f, 0xff, 0x10,
  0x0c, 0x0c, 0xf6, 0xfa, 0x10, 0xfc, 0x01, 0x05, 0x01, 0xdc, 0xe8, 0x07,
  0xd0, 0x21, 0xc6, 0xe2, 0x1e, 0x99, 0x05, 0xe5, 0xbc, 0xe7, 0xcf, 0xe1,
  0x22, 0xaf, 0xfd, 0xe2, 0xd3, 0xe2, 0x43, 0x10, 0x22, 0x1d, 0x42, 0xeb,
  0x0d, 0x0d, 0xfd, 0xd2, 0x08, 0x11, 0xf8, 0x11, 0x01, 0xf4, 0xff, 0x0d,
  0x0b, 0xf2, 0xf4, 0xfb, 0xf8, 0xee, 0xf3, 0x01, 0xfe, 0xf9, 0xf5, 0x11,
  0xf0, 0x0f, 0xfe, 0x02, 0xfa, 0x0d, 0x0b, 0x09, 0x0d, 0xf1, 0x0e, 0xfd,
  0xfb, 0xf0, 0xfe, 0x01, 0xf3, 0xef, 0xef, 0xee, 0x02, 0x0a, 0xff, 0x11,
  0xf4, 0x01, 0xf4, 0xf3, 0x01, 0xf3, 0x04, 0x12, 0xfd, 0x00, 0xf9, 0x02,
  0x0e, 0xfa, 0xfa, 0x0d, 0x04, 0x02, 0x07, 0xfc, 0xd5, 0x50, 0xc1, 0x07,
  0xd8, 0x1f, 0xc3, 0x03, 0x2a, 0xc5, 0xfd, 0xf2, 0xbe, 0x37, 0x04, 0xe7,
  0x00, 0xfb, 0xdb, 0xdb, 0xe3, 0x0f, 0xe0, 0xe2, 0x12, 0x2a, 0x0e, 0x1f,
  0x17, 0x03, 0x07, 0xbb, 0xf7, 0xf3, 0xf0, 0xf6, 0xfb, 0x08, 0xf6, 0xf0,
  0xf1, 0xf6, 0xee, 0x0d, 0xf1, 0xef, 0x0a, 0xf5, 0x11, 0xff, 0xf6, 0x06,
  0xf4, 0xf1, 0x0c, 0xf9, 0x13, 0xfa, 0x07, 0x09, 0xf2, 0x02, 0xf1, 0x06,
  0xfa, 0x04, 0xff, 0x00, 0xfb, 0x06, 0x02, 0x08, 0x03, 0x08, 0x05, 0x01,
  0xfe, 0xfa, 0xf6, 0xf5, 0x08, 0x04, 0xf6, 0x0c, 0x00, 0x0d, 0x05, 0x00,
  0xf6, 0xf2, 0x0b, 0x07, 0x04, 0xff, 0x06, 0xf7, 0x09, 0xe4, 0x0c, 0xf9,
  0xd8, 0xed, 0x0e, 0xe0, 0xe6, 0x81, 0xda, 0x16, 0xfb, 0x37, 0x15, 0x16,
  0xf5, 0xec, 0xd6, 0x11, 0xe1, 0x1a, 0x06, 0x06, 0x1b, 0xe4, 0x06, 0x1a,
  0xf3, 0x2d, 0xe1, 0x1b, 0x02, 0xfb, 0x08, 0x05, 0x0a, 0x03, 0xfd, 0xfd,
  0xf4, 0xfb, 0x08, 0xf4, 0x08, 0xff, 0x0d, 0x01, 0x09, 0xfc, 0xf5, 0x02,
  0x0b, 0xf7, 0xf3, 0xf2, 0x04, 0xf7, 0x01, 0x04, 0x08, 0x05, 0x0b, 0x03,
  0x07, 0xf8, 0xf6, 0xfb, 0xf2, 0xfe, 0xf6, 0x0a, 0x08, 0xf4, 0x04, 0xf2,
  0x08, 0x08, 0xf9, 0x02, 0xf8, 0x07, 0x06, 0x06, 0xf7, 0x04, 0xfb, 0x08,
  0xf4, 0x07, 0x08, 0x0b, 0x0b, 0x07, 0x00, 0xf4, 0x08, 0xf0, 0x34, 0xfe,
  0x2e, 0xe7, 0xdb, 0x02, 0xec, 0xe6, 0xf1, 0x09, 0x0a, 0x13, 0xe8, 0xda,
  0xe3, 0xea, 0xf3, 0x0d, 0xd7, 0xee, 0xf2, 0x24, 0x09, 0xf6, 0x23, 0xfb,
  0x05, 0x28, 0xec, 0x01, 0x06, 0x07, 0x05, 0x0c, 0x0a, 0x06, 0x00, 0xf5,
  0x00, 0xfa, 0x0d, 0xf3, 0x06, 0xf8, 0xf8, 0xf8, 0x08, 0xfa, 0x04, 0x02,
  0x09, 0xf5, 0x03, 0xf3, 0xf9, 0x0d, 0x0e, 0x02, 0xf4, 0xf5, 0x01, 0xfe,
  0xf9, 0x09, 0x0c, 0x0b, 0xfe, 0xfc, 0x0b, 0xf5, 0x06, 0xf9, 0xfe, 0xf3,
  0xfb, 0x06, 0x08, 0x0b, 0xfd, 0x00, 0xf3, 0x08, 0xf9, 0x08, 0x07, 0x09,
  0x07, 0xfd, 0x09, 0xfd, 0x05, 0xf5, 0xf6, 0x0d, 0x11, 0xf5, 0xfb, 0x25,
  0xf5, 0xe0, 0xf7, 0xf5, 0xfb, 0xf0, 0xdf, 0x18, 0xfc, 0x0d, 0xf9, 0xe5,
  0x2e, 0x04, 0xfb, 0x19, 0xf5, 0xd1, 0x02, 0x11, 0x0c, 0xfc, 0x2f, 0xd6,
  0xf7, 0xbd, 0x06, 0xd3, 0xf9, 0x04, 0xf2, 0x08, 0xf4, 0x05, 0xff, 0x01,
  0xfc, 0x03, 0xf3, 0xf5, 0xff, 0xf7, 0x09, 0x02, 0x0a, 0xfc, 0x0a, 0xfa,
  0xf3, 0x05, 0xf4, 0x0a, 0xf7, 0xf8, 0x07, 0x03, 0xfa, 0x05, 0xfa, 0x09,
  0x0c, 0x0e, 0x0b, 0xf0, 0xfb, 0xf7, 0xf2, 0x04, 0x08, 0x09, 0xf3, 0xf3,
  0x0b, 0xef, 0xf1, 0x0d, 0x02, 0x0a, 0x04, 0x12, 0xfc, 0x05, 0xee, 0x00,
  0xf9, 0xfc, 0x07, 0xf4, 0x01, 0x10, 0x08, 0x0f, 0x15, 0xef, 0xe7, 0xe3,
  0x14, 0xfd, 0xee, 0x1f, 0xff, 0xea, 0x43, 0x02, 0x18, 0xd6, 0x19, 0xe8,
  0x12, 0xf0, 0x1d, 0x08, 0x08, 0x19, 0x14, 0xcd, 0xe9, 0x01, 0x08, 0xe5,
  0x2f, 0xcc, 0x1e, 0xb3, 0xf7, 0x08, 0xfb, 0xf0, 0x07, 0xf7, 0x07, 0xee,
  0x0f, 0x08, 0x0d, 0xf2, 0xf4, 0xf2, 0x11, 0xf6, 0x0a, 0xf2, 0xf7, 0x05,
  0x09, 0xef, 0xfd, 0xf2, 0xf3, 0x02, 0x00, 0x12, 0x06, 0x05, 0x01, 0x11,
  0x0d, 0x07, 0x02, 0x04, 0x06, 0x11, 0x04, 0xf4, 0x0d, 0xf8, 0x05, 0xf3,
  0x05, 0x09, 0xf2, 0xf5, 0x08, 0x0c, 0xee, 0x0a, 0x08, 0x08, 0x0a, 0x09,
  0x05, 0x09, 0xf2, 0x0e, 0xf5, 0x07, 0x0b, 0x0a, 0xe6, 0xf8, 0xff, 0x2b,
  0xdd, 0xfb, 0x1d, 0x98, 0x09, 0xce, 0xf9, 0x14, 0xf9, 0xf1, 0x13, 0x06,
  0x0e, 0xef, 0xfd, 0xfe, 0xf8, 0x3f, 0x01, 0xb7, 0xfa, 0xf1, 0xed, 0xee,
  0xf4, 0x2b, 0x81, 0xf9, 0x06, 0x09, 0xf5, 0xf8, 0xf2, 0xf2, 0x03, 0x0c,
  0xfd, 0x0b, 0x05, 0x00, 0x08, 0x05, 0xf1, 0x08, 0xf1, 0xf9, 0x12, 0xf5,
  0xf4, 0x08, 0xfd, 0x09, 0xf0, 0x12, 0x01, 0x0f, 0x00, 0xf1, 0x10, 0xf7,
  0xf1, 0x05, 0xef, 0xfe, 0xff, 0xf1, 0x07, 0xfc, 0x0f, 0xf3, 0xfb, 0xfd,
  0xfa, 0x0e, 0x0c, 0xf3, 0x03, 0xff, 0x10, 0xf6, 0xf9, 0x03, 0xf3, 0x08,
  0xfb, 0x0a, 0xf2, 0xf4, 0x0e, 0x04, 0x07, 0x00, 0x05, 0x09, 0x2a, 0x1e,
  0xf1, 0x14, 0x04, 0xb4, 0x1d, 0xee, 0xed, 0xae, 0x00, 0x4b, 0xd0, 0x0d,
  0xe7, 0xe4, 0xc8, 0x1f, 0xf8, 0xd4, 0xe7, 0x45, 0xf2, 0xab, 0xfb, 0xf0,
  0xcc, 0x26, 0xc0, 0x35, 0xfe, 0xfd, 0xfb, 0x11, 0xfa, 0x01, 0x06, 0x06,
  0xef, 0xfc, 0xf4, 0xf1, 0x09, 0x0d, 0xf3, 0xf9, 0x08, 0x09, 0xff, 0x0b,
  0x05, 0x11, 0x07, 0x00, 0x0c, 0xf5, 0xfd, 0xef, 0xfb, 0x0f, 0xf4, 0xf3,
  0x01, 0xee, 0xfd, 0xee, 0xee, 0x01, 0x03, 0x0c, 0x08, 0x08, 0x07, 0x0c,
  0x0f, 0xff, 0xff, 0xf8, 0x0d, 0x06, 0x0e, 0x0e, 0xf7, 0xfc, 0xf1, 0x12,
  0xfa, 0xf9, 0x0c, 0xfc, 0x0b, 0x0e, 0xf2, 0x01, 0xf6, 0x25, 0xf5, 0xcf,
  0xc2, 0x21, 0x21, 0x0e, 0xf1, 0xe0, 0xd8, 0xda, 0xdc, 0xe0, 0xfc, 0x9b,
  0x34, 0x08, 0x25, 0xc8, 0x0f, 0x1d, 0xfd, 0x12, 0xed, 0x4f, 0xbe, 0xd8,
  0x25, 0x07, 0xdc, 0x01, 0x11, 0xf2, 0xfa, 0xf8, 0x02, 0x05, 0xff, 0xf8,
  0xfb, 0x0a, 0xee, 0x01, 0xf9, 0x05, 0x07, 0xf8, 0xf7, 0x00, 0xf4, 0x05,
  0xf6, 0x11, 0xfb, 0x0c, 0x11, 0x05, 0x0b, 0x03, 0x0b, 0x02, 0xf2, 0x11,
  0x12, 0xfa, 0x01, 0x0c, 0xff, 0x11, 0x07, 0x09, 0xfa, 0xf1, 0xf4, 0x0e,
  0x06, 0x12, 0xf1, 0xfd, 0x06, 0xf4, 0xf2, 0xf0, 0x0b, 0x01, 0xf4, 0x0e,
  0x03, 0xfe, 0x03, 0x10, 0xf3, 0x05, 0x01, 0xf2, 0xec, 0x0b, 0x08, 0xe3,
  0xf7, 0xf0, 0x1a, 0xfb, 0x0b, 0xf2, 0xfd, 0x9a, 0xdf, 0xea, 0x26, 0x81,
  0x35, 0xf5, 0x12, 0xd6, 0xf9, 0x0d, 0xf0, 0x36, 0xe3, 0xfb, 0x05, 0xe0,
  0xe1, 0xec, 0x0f, 0xf9, 0xf5, 0xf1, 0xfe, 0x03, 0xf4, 0x09, 0x0b, 0xf2,
  0xf2, 0x08, 0xf6, 0x0d, 0xf1, 0xfc, 0x0e, 0x09, 0xfd, 0x08, 0xfe, 0xf9,
  0xfe, 0xff, 0xfd, 0xf4, 0xff, 0x09, 0x0f, 0xf1, 0x0c, 0xf2, 0x09, 0x08,
  0x06, 0xf5, 0x0c, 0xf2, 0xfa, 0x05, 0xfc, 0xf1, 0x0f, 0x00, 0xfa, 0x00,
  0xee, 0xf2, 0x03, 0xf5, 0x06, 0xf9, 0x10, 0x0f, 0x0f, 0x00, 0xfd, 0xf8,
  0xf0, 0xf5, 0x02, 0xfe, 0x0f, 0x0d, 0xf2, 0x0f, 0x04, 0xe4, 0x0d, 0xdd,
  0xf8, 0x1b, 0xf9, 0xea, 0x1f, 0x28, 0x3f, 0x46, 0x0e, 0x0c, 0xad, 0xaf,
  0x3c, 0xf5, 0x02, 0xcf, 0xe4, 0x19, 0xf8, 0x39, 0xea, 0xeb, 0x3e, 0x28,
  0xea, 0x0a, 0x13, 0x00, 0x08, 0xf1, 0xf3, 0x01, 0x00, 0xf9, 0x0c, 0xf1,
  0x01, 0xff, 0x07, 0x0d, 0x0b, 0x06, 0xf5, 0x09, 0xfa, 0xf6, 0x05, 0xfe,
  0xf6, 0xee, 0x10, 0x03, 0x02, 0x05, 0x05, 0x03, 0x0f, 0xf4, 0x03, 0xf6,
  0xf6, 0xf0, 0xf3, 0x03, 0xf2, 0xfe, 0x18, 0xe8, 0xfb, 0x15, 0xf0, 0x11,
  0x05, 0x10, 0x0e, 0x13, 0xf8, 0xef, 0xf8, 0x02, 0x00, 0xf4, 0xf8, 0xef,
  0x0d, 0x08, 0x11, 0x16, 0xfd, 0x15, 0x0a, 0xe9, 0x01, 0xfc, 0xe8, 0x24,
  0x1b, 0xe7, 0x19, 0x0c, 0xd4, 0x98, 0xf1, 0xe2, 0xd7, 0x06, 0xd2, 0xff,
  0xf2, 0xc6, 0x27, 0xc7, 0x54, 0xcc, 0xf2, 0x88, 0x15, 0xa9, 0xa1, 0xdf,
  0x09, 0xf1, 0xdf, 0x4a, 0x07, 0x17, 0xfb, 0x13, 0xeb, 0x0d, 0xfe, 0xfe,
  0x09, 0x11, 0x09, 0x07, 0x03, 0xf0, 0x17, 0xee, 0xfd, 0x0f, 0x16, 0xf4,
  0xee, 0x0a, 0x13, 0x00, 0x0c, 0x15, 0xff, 0x0f, 0xf1, 0xe8, 0x12, 0x17,
  0xfc, 0xf3, 0xf8, 0xf1, 0x13, 0x0b, 0x02, 0x01, 0x0e, 0x12, 0x0d, 0x11,
  0x17, 0x06, 0xfa, 0xfd, 0x03, 0x14, 0x01, 0xed, 0x06, 0x06, 0x07, 0x03,
  0x06, 0x04, 0xef, 0xfd, 0xf0, 0x04, 0x00, 0x16, 0xb2, 0x0d, 0xe0, 0xbb,
  0xf3, 0x1c, 0x47, 0x1d, 0xec, 0xbd, 0x81, 0xfa, 0x04, 0x22, 0x20, 0xe2,
  0x09, 0x20, 0xfc, 0x04, 0x1c, 0x06, 0xdf, 0xee, 0xb0, 0xf4, 0xed, 0xbb,
  0x21, 0xb5, 0x09, 0xf0, 0xf5, 0x08, 0x0e, 0xf5, 0x02, 0x07, 0x13, 0xf0,
  0xf5, 0xf6, 0x0d, 0x01, 0xfe, 0xf8, 0xf6, 0xed, 0xed, 0x08, 0xe8, 0xfa,
  0xf4, 0xf4, 0x12, 0x05, 0xf5, 0x12, 0x12, 0xed, 0xf9, 0xf9, 0x16, 0xeb,
  0x10, 0xf3, 0x01, 0xec, 0xee, 0xfa, 0x17, 0xe9, 0xf8, 0xfa, 0x06, 0x01,
  0xf9, 0xfd, 0xf6, 0xf1, 0xf7, 0xfd, 0x05, 0x05, 0xfd, 0xeb, 0xf2, 0x0f,
  0x07, 0xf7, 0xf8, 0x18, 0xf4, 0xfb, 0xf8, 0x17, 0x50, 0x06, 0x0f, 0x14,
  0x38, 0x34, 0xb0, 0x45, 0x66, 0x26, 0xdb, 0x05, 0x0c, 0x21, 0xcc, 0xfd,
  0xd2, 0xee, 0xe4, 0x0a, 0x9a, 0x1f, 0x00, 0x2d, 0x0a, 0x19, 0x06, 0x30,
  0xdc, 0x39, 0x25, 0xb1, 0x14, 0x09, 0x15, 0x07, 0x00, 0x10, 0x17, 0xfc,
  0xf0, 0x0d, 0xfb, 0x14, 0xfa, 0xff, 0xf5, 0x03, 0xfe, 0x11, 0xec, 0xfc,
  0x0a, 0x0e, 0x02, 0xfd, 0xee, 0xea, 0xfb, 0x12, 0xf7, 0xfb, 0xf9, 0xf2,
  0xf9, 0xfc, 0x06, 0xf1, 0x14, 0x13, 0xe9, 0x05, 0x06, 0xed, 0xfa, 0x0a,
  0x0f, 0x0a, 0xee, 0xeb, 0xff, 0x17, 0xec, 0xf9, 0xf7, 0xf1, 0xfe, 0x03,
  0x13, 0xf8, 0xeb, 0x13, 0x0c, 0x11, 0xef, 0xf2, 0xfd, 0x2d, 0xec, 0x39,
  0xfd, 0xdc, 0xd5, 0x21, 0xec, 0xe6, 0x28, 0x13, 0xc9, 0xc4, 0xa5, 0xe8,
  0x35, 0x81, 0xdd, 0xab, 0x9a, 0x00, 0x1a, 0x35, 0x36, 0xf0, 0xf2, 0x0c,
  0xfa, 0xe4, 0x0d, 0x0e, 0xea, 0xf7, 0xfb, 0xf9, 0xfe, 0x01, 0x06, 0x14,
  0x16, 0xf4, 0xf1, 0xed, 0xeb, 0x09, 0x03, 0xea, 0x02, 0x01, 0xf9, 0x12,
  0xec, 0x0b, 0xf1, 0x18, 0xff, 0xf7, 0x14, 0xf5, 0x01, 0x07, 0xeb, 0xf5,
  0x12, 0x09, 0xf2, 0xf5, 0x03, 0x0f, 0x15, 0x13, 0xf9, 0xf1, 0x01, 0xed,
  0x13, 0x04, 0x15, 0xea, 0xf2, 0xef, 0x11, 0x03, 0x03, 0xf0, 0xf2, 0xec,
  0xfd, 0x02, 0xf7, 0xee, 0xf4, 0xf1, 0x12, 0x02, 0x1b, 0xf0, 0x9b, 0xf9,
  0xfd, 0xf9, 0xc4, 0x14, 0xd4, 0xc8, 0x0c, 0xe0, 0xe0, 0x21, 0xb9, 0x87,
  0xf7, 0xc6, 0xbf, 0xff, 0xc0, 0x34, 0x58, 0x44, 0x12, 0xeb, 0xa7, 0x43,
  0x2c, 0x09, 0xe0, 0x0f, 0xfd, 0x0b, 0xea, 0x12, 0x10, 0x18, 0x0f, 0x05,
  0x14, 0x07, 0xff, 0xe9, 0x05, 0xf7, 0xea, 0xea, 0x0f, 0x07, 0x12, 0xfc,
  0xfa, 0xf9, 0x10, 0x04, 0x00, 0x09, 0x0f, 0x13, 0xea, 0xf0, 0x04, 0xf8,
  0x10, 0xed, 0xf0, 0x0e, 0x05, 0x11, 0x16, 0xf4, 0x04, 0xf3, 0xe9, 0x11,
  0x10, 0xfd, 0xef, 0xf0, 0x03, 0xea, 0x0b, 0x00, 0xf8, 0xf5, 0xf9, 0x13,
  0x01, 0x03, 0xfa, 0xf6, 0x02, 0x0b, 0xfe, 0x16, 0xfc, 0x03, 0xb7, 0x08,
  0x18, 0xc4, 0xf5, 0x0a, 0x42, 0x27, 0xb1, 0xf4, 0x45, 0x39, 0x6e, 0xdf,
  0xe3, 0xee, 0xe0, 0x2c, 0x17, 0xec, 0x11, 0x15, 0xd2, 0x02, 0x9b, 0xd9,
  0x3a, 0xb0, 0x2b, 0xc3, 0xf0, 0x08, 0xf3, 0xf6, 0x00, 0xfc, 0x05, 0xf5,
  0xf9, 0xfa, 0xf2, 0x15, 0x14, 0xfd, 0xea, 0xfe, 0xf2, 0xff, 0xec, 0x08,
  0xfd, 0xff, 0x08, 0x0a, 0xf2, 0xeb, 0x15, 0x06, 0xfe, 0xfb, 0x0e, 0x03,
  0xfc, 0x17, 0x06, 0x10, 0xfc, 0xea, 0xf9, 0xf9, 0xee, 0x13, 0x07, 0xeb,
  0x09, 0xf5, 0xea, 0x01, 0x17, 0x08, 0x0b, 0xe9, 0x0e, 0xec, 0x02, 0x11,
  0x03, 0xf4, 0xf1, 0x13, 0xeb, 0x02, 0x05, 0xed, 0xee, 0xaf, 0xe0, 0x0d,
  0xe8, 0x12, 0x07, 0x50, 0xc9, 0x24, 0x1c, 0x9a, 0xfe, 0xe8, 0xeb, 0x2a,
  0xf6, 0xbd, 0xf0, 0x18, 0x35, 0x0f, 0xf0, 0x28, 0x2b, 0xca, 0xf0, 0xe3,
  0x05, 0xf2, 0xcc, 0x55, 0x04, 0xff, 0x06, 0xfd, 0xfa, 0x10, 0xf9, 0xe9,
  0x14, 0x0b, 0xf8, 0xf8, 0x11, 0xf9, 0x03, 0x11, 0x14, 0x14, 0xed, 0x07,
  0x15, 0xf1, 0x12, 0xee, 0x16, 0xf3, 0x07, 0xf0, 0x07, 0x15, 0x16, 0x00,
  0xea, 0xfa, 0xed, 0x0f, 0x05, 0xeb, 0x14, 0xf7, 0x17, 0x11, 0xed, 0x13,
  0x0c, 0x09, 0x08, 0xee, 0xfa, 0xf1, 0x04, 0xf3, 0x0b, 0xf8, 0x01, 0xef,
  0x0a, 0x09, 0x04, 0xee, 0x0b, 0xfa, 0x09, 0x14, 0xe8, 0xe0, 0x2a, 0x26,
  0x89, 0x2b, 0x89, 0xfa, 0x4f, 0x0a, 0xf2, 0xd1, 0xe5, 0x0c, 0xac, 0xeb,
  0xba, 0xdc, 0x28, 0x11, 0xb8, 0x0f, 0x10, 0xf8, 0xdb, 0x7f, 0xfc, 0x08,
  0xb5, 0xb7, 0xf0, 0xe5, 0x14, 0xf8, 0xf5, 0xfd, 0xf3, 0x16, 0xff, 0xf6,
  0x0a, 0x03, 0x09, 0xe9, 0xf8, 0x01, 0xf9, 0xfd, 0x15, 0x0a, 0xea, 0xf7,
  0x0b, 0x08, 0xf9, 0xfc, 0x07, 0x04, 0xed, 0xef, 0xf4, 0xf6, 0x0f, 0xf7,
  0x01, 0x0f, 0x0b, 0xe9, 0x07, 0x09, 0xfc, 0xec, 0xea, 0x11, 0x01, 0xfe,
  0xf3, 0xf4, 0xf1, 0x0a, 0x11, 0xed, 0xf0, 0x13, 0x08, 0x01, 0x02, 0xf1,
  0xf4, 0x06, 0xef, 0xe9, 0x11, 0x16, 0x09, 0xe9, 0xe3, 0x0c, 0x10, 0x13,
  0xcc, 0xc5, 0x1e, 0xb3, 0x3f, 0xf7, 0xea, 0xd7, 0xfa, 0xfe, 0xb8, 0xb2,
  0xf8, 0xd7, 0xe1, 0xbd, 0xac, 0x0c, 0xe2, 0xea, 0xd1, 0x43, 0xff, 0xde,
  0x30, 0x21, 0x0e, 0x04, 0xf2, 0xf7, 0x15, 0x17, 0xf0, 0x09, 0xfa, 0xff,
  0x06, 0xf9, 0x0e, 0x0f, 0xf9, 0x0d, 0xf5, 0x0c, 0x09, 0xf0, 0x10, 0x05,
  0x0b, 0xe9, 0x0c, 0x15, 0x15, 0xf2, 0xfe, 0xf2, 0x0e, 0x16, 0xf9, 0x06,
  0x03, 0x10, 0x0c, 0xe8, 0xe8, 0x0b, 0xef, 0x0c, 0x15, 0x19, 0xff, 0xea,
  0xf3, 0xfd, 0xef, 0xf0, 0x03, 0xe7, 0x0b, 0xff, 0x02, 0xf4, 0x0a, 0xff,
  0xe7, 0xf0, 0x01, 0x09, 0xf8, 0xfa, 0xfa, 0xe7, 0x43, 0xc9, 0x1e, 0x03,
  0x41, 0x4e, 0xca, 0xd4, 0x1e, 0xf7, 0xd5, 0x03, 0xe4, 0xc6, 0xf4, 0xec,
  0x0b, 0xd1, 0x38, 0x2e, 0xec, 0xa6, 0xef, 0x18, 0x29, 0xdb, 0x1e, 0xfc,
  0xe0, 0x35, 0xe7, 0xca, 0xfa, 0xf9, 0x06, 0x13, 0x06, 0xf0, 0x0b, 0x10,
  0xfe, 0x15, 0x0d, 0xf0, 0xfd, 0xf4, 0xee, 0xf6, 0xe8, 0xf9, 0xec, 0xff,
  0xe8, 0xf6, 0x04, 0xeb, 0xee, 0xe7, 0x07, 0xff, 0xeb, 0x16, 0x00, 0x01,
  0x0f, 0x03, 0x15, 0x01, 0x17, 0xfd, 0xf7, 0x04, 0xe9, 0xec, 0xea, 0x16,
  0xee, 0x0a, 0x13, 0x07, 0x0c, 0xef, 0x0f, 0xe7, 0x18, 0x14, 0xff, 0x10,
  0x00, 0xff, 0xec, 0x08, 0xe7, 0xf8, 0xf1, 0x0b, 0x2d, 0xfe, 0x0d, 0x16,
  0x0c, 0x04, 0xa3, 0x1c, 0xca, 0xeb, 0x29, 0x09, 0xe9, 0xb6, 0x3d, 0x50,
  0x48, 0xab, 0x08, 0xd9, 0x81, 0xfc, 0x19, 0xeb, 0xd1, 0xb1, 0x36, 0xe2,
  0x83, 0x46, 0xb4, 0xe7, 0xfd, 0xf6, 0xef, 0xfd, 0xfa, 0xec, 0xfd, 0x17,
  0x0c, 0xfa, 0x03, 0xf4, 0x00, 0x14, 0xe7, 0x18, 0x19, 0x10, 0x17, 0x06,
  0x0f, 0xff, 0xef, 0x0a, 0x10, 0x0b, 0xf3, 0xec, 0x16, 0x01, 0xf0, 0x19,
  0x17, 0xf1, 0xfe, 0xf0, 0x08, 0xfa, 0x05, 0xfd, 0xf5, 0xf9, 0xe9, 0xef,
  0xf0, 0xf6, 0xe9, 0x09, 0xea, 0xfb, 0xea, 0x15, 0x08, 0x17, 0x02, 0xf9,
  0xfa, 0x15, 0xe9, 0x08, 0xeb, 0x03, 0xf6, 0xff, 0xae, 0xd7, 0xe0, 0xe1,
  0xd5, 0xbf, 0x13, 0xc9, 0xe8, 0x0f, 0x53, 0xcc, 0x21, 0x45, 0xd9, 0xf8,
  0xd9, 0xc2, 0x97, 0xa8, 0x1a, 0x2c, 0xc6, 0xad, 0x1a, 0x29, 0xee, 0x06,
  0xc0, 0xe4, 0xa2, 0x43, 0xeb, 0xf2, 0x06, 0x08, 0xf9, 0xec, 0xf3, 0xe8,
  0x16, 0xf0, 0x12, 0x04, 0xe8, 0xf0, 0x18, 0xf5, 0x15, 0x13, 0x17, 0x05,
  0x06, 0xf7, 0xf6, 0x13, 0x03, 0x06, 0xf7, 0xed, 0x07, 0x0a, 0xfb, 0xfd,
  0x00, 0xf6, 0x06, 0x0d, 0xf3, 0xf5, 0x04, 0x0c, 0xf2, 0x04, 0xf5, 0x05,
  0xf1, 0xf3, 0xf5, 0xfc, 0xf7, 0x0e, 0xfe, 0xf7, 0x08, 0xf6, 0xfa, 0x0c,
  0xfe, 0xf8, 0x0d, 0x0e, 0x0a, 0x01, 0x03, 0x0d, 0x08, 0xe1, 0xf4, 0xde,
  0xf3, 0x15, 0xd0, 0x1e, 0xef, 0x28, 0x18, 0xe5, 0x34, 0xc5, 0xfe, 0xf3,
  0x14, 0xed, 0xe7, 0x0e, 0x09, 0x01, 0x9f, 0x1b, 0xe3, 0xf3, 0xfd, 0x39,
  0xf0, 0x0a, 0x22, 0xec, 0x0d, 0x05, 0xf3, 0xf7, 0x0d, 0xf8, 0x0d, 0x02,
  0xfc, 0xfc, 0xf1, 0xff, 0xf7, 0x0a, 0xfb, 0xfe, 0xf6, 0x0b, 0x0e, 0x0d,
  0x07, 0x0d, 0xfb, 0x0b, 0xfe, 0xf8, 0x00, 0x0b, 0x0e, 0xff, 0xf2, 0xf3,
  0xfb, 0xf8, 0xfd, 0xfc, 0xf6, 0x0c, 0x09, 0xfe, 0xf7, 0x08, 0xfa, 0xfa,
  0x0d, 0x04, 0xf3, 0x09, 0x02, 0xf4, 0xfe, 0x0f, 0xf5, 0xfc, 0x0b, 0x00,
  0xf7, 0x0e, 0xff, 0x08, 0x0e, 0xfa, 0xfc, 0x0f, 0x0a, 0x02, 0xe5, 0xda,
  0xef, 0xdc, 0x06, 0x06, 0xdd, 0x0a, 0xef, 0xfb, 0xf7, 0x11, 0xfd, 0xea,
  0x18, 0xe9, 0x1e, 0x15, 0xf5, 0xef, 0x17, 0xd3, 0xea, 0xe3, 0xfc, 0xc9,
  0x1c, 0x81, 0x00, 0x17, 0x0e, 0x08, 0xf9, 0xf9, 0x08, 0xff, 0x0c, 0x0e,
  0x05, 0x0e, 0xfd, 0x0b, 0xf9, 0x01, 0x07, 0xf5, 0xfd, 0xf3, 0xfc, 0xf3,
  0xfb, 0xfe, 0x0d, 0x07, 0x0f, 0x0a, 0x08, 0x04, 0x02, 0x06, 0xf7, 0xf5,
  0x01, 0x0d, 0x01, 0x0c, 0x0e, 0x02, 0x0d, 0xfc, 0x03, 0xf5, 0x05, 0xfa,
  0xfb, 0xfd, 0x00, 0x03, 0x03, 0x00, 0x09, 0xf4, 0xf3, 0x0b, 0x0c, 0x09,
  0xf8, 0x03, 0x03, 0x04, 0xf9, 0xfd, 0x07, 0xf1, 0x31, 0x0c, 0xf2, 0x1b,
  0xfb, 0xe8, 0x06, 0xff, 0xeb, 0xeb, 0xfd, 0xfd, 0xe4, 0xee, 0x30, 0x1b,
  0xee, 0x07, 0x1a, 0xeb, 0xe9, 0x25, 0xd1, 0xed, 0xcb, 0xfa, 0xc4, 0x87,
  0x03, 0xe9, 0x12, 0x17, 0xfa, 0xff, 0x00, 0xfe, 0x03, 0x05, 0xf4, 0x09,
  0xf8, 0xf9, 0x06, 0x0b, 0x0a, 0xf3, 0x03, 0x01, 0x0a, 0xf7, 0xf4, 0x09,
  0x0d, 0xf4, 0xfb, 0xfc, 0x00, 0x0e, 0xfa, 0xf6, 0x06, 0xf1, 0x00, 0x0e,
  0xf8, 0xf2, 0x0a, 0x10, 0xfc, 0xee, 0x12, 0xf6, 0x0f, 0xed, 0xfb, 0x0f,
  0xf7, 0x12, 0xf0, 0x12, 0x0b, 0xf6, 0x07, 0xf2, 0xfd, 0xff, 0xf9, 0x0c,
  0xfc, 0xee, 0xf0, 0xf5, 0x03, 0x10, 0xf3, 0x06, 0x31, 0x22, 0xed, 0x12,
  0x16, 0x00, 0x1a, 0xe0, 0xfc, 0xe0, 0x0a, 0x04, 0x13, 0x1a, 0xe5, 0x19,
  0xd5, 0xe1, 0xfe, 0x12, 0x04, 0xd4, 0x25, 0xb5, 0x46, 0x81, 0x0a, 0xe5,
  0x0d, 0xfd, 0xf3, 0x14, 0xf5, 0x0d, 0x0a, 0x12, 0xfb, 0x12, 0x12, 0x0e,
  0xf4, 0x01, 0x07, 0xf9, 0x0d, 0x08, 0x12, 0xf0, 0xf8, 0xef, 0x09, 0x03,
  0x0f, 0x03, 0x07, 0x0f, 0xfb, 0xf2, 0xf6, 0x07, 0x04, 0xf7, 0x0e, 0x0a,
  0x0f, 0x0d, 0xf4, 0xef, 0x04, 0xf1, 0x0b, 0x10, 0xfe, 0x11, 0x0d, 0xf5,
  0x13, 0x00, 0x11, 0xef, 0x11, 0xf4, 0x13, 0x03, 0xf3, 0xf0, 0xee, 0x00,
  0xf4, 0xf7, 0xff, 0x06, 0x04, 0x0b, 0xf8, 0xf5, 0x16, 0x3a, 0xd5, 0x19,
  0xd9, 0x17, 0xb9, 0x15, 0xe8, 0xd5, 0xe2, 0x0e, 0xef, 0x19, 0xf3, 0xcf,
  0x13, 0x26, 0x2d, 0xd2, 0xae, 0x0a, 0x19, 0xbd, 0x07, 0x4a, 0x19, 0xbe,
  0x10, 0xeb, 0xbe, 0xab, 0x09, 0x0a, 0xfb, 0xed, 0x0b, 0xed, 0x09, 0xf9,
  0x0f, 0x00, 0x06, 0x0e, 0x13, 0x08, 0x09, 0x04, 0x13, 0xfc, 0x0b, 0xf7,
  0x00, 0x0c, 0xf2, 0x09, 0x03, 0x10, 0x0f, 0x10, 0xf6, 0x06, 0x09, 0x03,
  0x14, 0xf2, 0x08, 0x06, 0x0e, 0xff, 0x12, 0x07, 0x02, 0xf1, 0xfa, 0x12,
  0x07, 0x0a, 0xed, 0xee, 0x10, 0x12, 0xf2, 0xff, 0x0a, 0xfc, 0xf0, 0xef,
  0x13, 0xee, 0xf0, 0x13, 0xed, 0x04, 0x0d, 0xf9, 0x09, 0x01, 0xf2, 0x39,
  0xcc, 0x15, 0xa4, 0x0d, 0x34, 0x10, 0xf5, 0x9a, 0xcb, 0xff, 0x3b, 0xa9,
  0x19, 0xe6, 0x1a, 0xf8, 0xc5, 0x20, 0xdc, 0x0d, 0x18, 0x46, 0x32, 0xea,
  0xe2, 0x03, 0x10, 0xbd, 0x04, 0xfa, 0xee, 0x0b, 0x07, 0xfa, 0xfd, 0x07,
  0x11, 0xed, 0x0b, 0x11, 0x00, 0x03, 0x00, 0x0e, 0x10, 0x12, 0xf6, 0x0c,
  0x0a, 0xee, 0xf3, 0xfe, 0x0b, 0x03, 0x0e, 0x05, 0xfb, 0xf4, 0x04, 0xf8,
  0xff, 0xee, 0xfe, 0xfa, 0xf8, 0x00, 0x14, 0xfb, 0x04, 0x0c, 0xf7, 0xfa,
  0xff, 0x0d, 0xfe, 0x0e, 0x0e, 0x02, 0xf4, 0xf9, 0xfb, 0x0c, 0xfc, 0x11,
  0x12, 0x0a, 0xff, 0xfe, 0x0b, 0xed, 0xf6, 0xed, 0xe5, 0xe0, 0x0c, 0xf7,
  0x2b, 0xf4, 0xed, 0x00, 0xf1, 0x1d, 0x23, 0xdf, 0xcf, 0xad, 0xea, 0xe3,
  0x05, 0x24, 0xe5, 0x41, 0xfd, 0xe5, 0x1d, 0xc7, 0xf9, 0xd1, 0x07, 0xfa,
  0xe9, 0x2b, 0xfb, 0xc8, 0xf5, 0xf2, 0xf4, 0xfc, 0xf9, 0xf1, 0xfb, 0xf9,
  0x13, 0xef, 0xfb, 0x0d, 0x0b, 0x01, 0xee, 0x0e, 0x0c, 0x05, 0xee, 0xf9,
  0x0b, 0xfe, 0x08, 0x06, 0x07, 0xf0, 0xf3, 0x0b, 0x06, 0xef, 0xf0, 0x08,
  0xef, 0xfb, 0xf0, 0xff, 0xfa, 0x13, 0xef, 0x08, 0x05, 0xf1, 0xf6, 0xf0,
  0x09, 0xf6, 0xf0, 0xf6, 0xfe, 0x0b, 0xf9, 0x0b, 0x02, 0xfd, 0x03, 0xf7,
  0x13, 0x01, 0xf9, 0xfc, 0xf9, 0xf7, 0xf8, 0x11, 0xc1, 0x1c, 0xd8, 0x03,
  0xea, 0xc5, 0xb8, 0xe6, 0xc9, 0x0c, 0x71, 0x28, 0xc0, 0xbb, 0x96, 0x0c,
  0xe1, 0x81, 0xaf, 0xfa, 0xd0, 0xcf, 0x26, 0x17, 0xfd, 0x8e, 0xe2, 0xec,
  0x2c, 0x11, 0x00, 0x0d, 0x06, 0xfb, 0x11, 0xf7, 0x03, 0xf2, 0x09, 0xfe,
  0xf9, 0x03, 0xf2, 0x0f, 0x14, 0x10, 0xfd, 0x0a, 0xfa, 0xf2, 0x13, 0xfc,
  0x03, 0xee, 0xfe, 0x12, 0xfb, 0x09, 0x04, 0xee, 0x0f, 0x0c, 0x11, 0x0b,
  0xfc, 0x12, 0xef, 0x0f, 0xee, 0xec, 0x13, 0x08, 0xfa, 0x12, 0x05, 0xed,
  0xfb, 0x0e, 0xef, 0xf7, 0xfd, 0x04, 0xf7, 0x10, 0x14, 0xfc, 0xfc, 0xec,
  0x10, 0xed, 0xfb, 0x03, 0x0d, 0x0b, 0x01, 0x10, 0xd5, 0x04, 0x0b, 0x17,
  0x14, 0xe5, 0x0e, 0x05, 0x24, 0x04, 0xf6, 0x1f, 0xe8, 0x0e, 0xde, 0x06,
  0x13, 0xdc, 0x93, 0x26, 0x18, 0xca, 0x02, 0x20, 0x1e, 0x05, 0x10, 0xc7,
  0xf1, 0x05, 0x1b, 0xe0, 0x07, 0x07, 0xf0, 0xee, 0xf6, 0x09, 0xf0, 0x12,
  0x03, 0x0c, 0x04, 0xfc, 0xf2, 0xf1, 0xfb, 0xf3, 0xed, 0xf0, 0x04, 0xff,
  0x13, 0xfb, 0x10, 0xfa, 0x13, 0x01, 0xf8, 0x02, 0xf3, 0x0f, 0x04, 0x10,
  0xe7, 0x15, 0x02, 0x12, 0xee, 0xf0, 0x13, 0xf9, 0x08, 0x09, 0x0b, 0xef,
  0x02, 0x19, 0xee, 0x11, 0xfc, 0xfd, 0x03, 0xe8, 0x09, 0x08, 0xf7, 0x18,
  0x0a, 0xf9, 0x07, 0x14, 0x02, 0xed, 0xe8, 0x04, 0xed, 0xad, 0xf3, 0xd0,
  0xf0, 0xf5, 0xc8, 0x35, 0x90, 0xed, 0xd4, 0x22, 0xf6, 0x1b, 0x42, 0xd7,
  0x2e, 0x01, 0x19, 0x08, 0xc9, 0x21, 0xe8, 0x40, 0xe4, 0xe7, 0x04, 0xd9,
  0x3e, 0x13, 0x23, 0x3d, 0x05, 0xe8, 0x17, 0xfd, 0x18, 0x14, 0x0d, 0xfe,
  0xf6, 0x07, 0x0e, 0xff, 0xfb, 0xe7, 0x04, 0xe9, 0xfb, 0xf9, 0xea, 0x16,
  0x03, 0x17, 0xe7, 0xfb, 0xf4, 0xe7, 0x06, 0x16, 0x06, 0x16, 0x03, 0xf8,
  0x02, 0xfc, 0xe9, 0x00, 0xfd, 0x03, 0x01, 0xe9, 0x01, 0x02, 0x14, 0x0c,
  0x0a, 0x09, 0xf1, 0xf5, 0x0b, 0xee, 0xf2, 0xf6, 0x0f, 0xfa, 0xf0, 0xf3,
  0x13, 0x0b, 0xee, 0xff, 0xf4, 0x08, 0x0e, 0x01, 0x23, 0xc5, 0xce, 0x01,
  0x01, 0x0f, 0xab, 0x46, 0xbf, 0x50, 0xd2, 0xb1, 0xfd, 0xf4, 0xc9, 0xb5,
  0xd7, 0xe1, 0x26, 0xe6, 0xde, 0x38, 0x3f, 0xeb, 0xfa, 0xf8, 0x60, 0x22,
  0xf1, 0xc9, 0x07, 0x12, 0x03, 0x05, 0xea, 0x0f, 0x17, 0xff, 0x0c, 0x0d,
  0xf8, 0x04, 0x08, 0xeb, 0x12, 0x17, 0xf9, 0xea, 0x05, 0xfa, 0x06, 0x16,
  0xf8, 0xf0, 0x16, 0x09, 0x00, 0xfc, 0x06, 0x0d, 0xea, 0x00, 0x0f, 0x02,
  0x15, 0x15, 0x09, 0x11, 0x07, 0xff, 0xf0, 0x15, 0x02, 0xe8, 0x01, 0x15,
  0xed, 0x09, 0x16, 0xec, 0xf9, 0xed, 0x08, 0x0f, 0xf6, 0xe7, 0x0f, 0xfe,
  0x13, 0x04, 0xe9, 0x03, 0x0f, 0xfc, 0x10, 0xec, 0x08, 0x3c, 0xe4, 0x64,
  0xf0, 0xe6, 0xba, 0x23, 0xe0, 0xf1, 0x37, 0xd2, 0x4c, 0xf9, 0x8c, 0x42,
  0xba, 0xa3, 0x81, 0x95, 0xa9, 0xee, 0x1a, 0xf9, 0x17, 0xf5, 0x2e, 0xeb,
  0xf9, 0xf2, 0xd4, 0x9b, 0xfb, 0xfa, 0xf8, 0xf3, 0xef, 0xff, 0x0b, 0xf0,
  0x0f, 0x0f, 0xf2, 0x03, 0xf2, 0x0f, 0xeb, 0x03, 0xf5, 0xe7, 0x03, 0xf1,
  0x0e, 0xf4, 0xff, 0xf3, 0x06, 0x15, 0x0e, 0xee, 0x07, 0xeb, 0x0f, 0xee,
  0x06, 0x09, 0x09, 0x0b, 0x0a, 0xf4, 0xfe, 0xfb, 0xfa, 0xf4, 0xfe, 0xfe,
  0xf8, 0x04, 0x07, 0x0d, 0xf5, 0xfe, 0xfc, 0xf9, 0x08, 0x01, 0xf8, 0x0b,
  0xfe, 0x07, 0x07, 0xf3, 0x0a, 0x09, 0x10, 0x06, 0x3c, 0x22, 0x0c, 0xe4,
  0x26, 0x81, 0xf0, 0xe5, 0xfb, 0x27, 0x15, 0x17, 0x07, 0xd1, 0xde, 0xe9,
  0xf8, 0xe6, 0x0a, 0xc5, 0x22, 0x03, 0xf9, 0x00, 0xd8, 0x13, 0x23, 0x06,
  0xf9, 0xef, 0x20, 0xec, 0xfa, 0x0f, 0xf4, 0x08, 0x0c, 0xf7, 0xfa, 0x07,
  0x02, 0x03, 0xfc, 0x0c, 0x10, 0x00, 0xfc, 0x0c, 0x0b, 0xfd, 0xf3, 0xf0,
  0xf8, 0x0d, 0xf1, 0x04, 0x0d, 0xf2, 0xf0, 0xfb, 0x04, 0x01, 0xfa, 0xfb,
  0x10, 0x07, 0xff, 0xf3, 0xf9, 0xf1, 0xf6, 0xf4, 0x00, 0xf9, 0xf8, 0xfe,
  0xf0, 0xf9, 0xf5, 0x0b, 0x0f, 0x0a, 0x0f, 0x09, 0x05, 0x0a, 0xf2, 0x0c,
  0x0f, 0xf3, 0x04, 0x10, 0xf2, 0x0a, 0x10, 0x0e, 0x16, 0x2b, 0x17, 0xee,
  0x3d, 0x92, 0xc5, 0xb0, 0xf5, 0x36, 0x23, 0x3b, 0xf6, 0xd3, 0xfd, 0xde,
  0xf5, 0xd8, 0xf1, 0xf1, 0x0d, 0x09, 0x26, 0xc2, 0xbf, 0x04, 0xe3, 0xf3,
  0x23, 0xfa, 0xe5, 0xde, 0xf0, 0x01, 0x0b, 0xfb, 0xfc, 0x07, 0xf2, 0x11,
  0xfd, 0xfc, 0xff, 0x04, 0x06, 0x10, 0x00, 0x05, 0x0b, 0x05, 0xfd, 0x0f,
  0x0e, 0x0f, 0x08, 0xf8, 0xf2, 0xf5, 0x06, 0xf5, 0xf5, 0x00, 0xfc, 0x05,
  0xf4, 0x0a, 0x0d, 0x0b, 0x0d, 0xff, 0x10, 0xf9, 0xfc, 0xfb, 0x01, 0xfd,
  0xf3, 0x0b, 0x0e, 0xf4, 0x0f, 0x01, 0x0a, 0x0e, 0xff, 0xfd, 0xfc, 0x04,
  0xf6, 0x0d, 0xf5, 0x01, 0x0d, 0xfd, 0x0d, 0x0e, 0xf4, 0x14, 0x37, 0xe7,
  0xfe, 0xee, 0x00, 0xe3, 0x22, 0x12, 0xc0, 0x04, 0x1e, 0x0b, 0x12, 0xf9,
  0x0f, 0xca, 0x07, 0xfd, 0x0c, 0xec, 0x0b, 0xf0, 0xdc, 0x02, 0xff, 0xd5,
  0x0a, 0xec, 0x03, 0xcd, 0xfb, 0xf2, 0xf1, 0x0c, 0x0b, 0xf8, 0xf4, 0x0a,
  0x00, 0xf2, 0x06, 0x00, 0xfc, 0x10, 0xfa, 0xfd, 0x0c, 0xfe, 0xff, 0xf4,
  0xf6, 0x0a, 0xf4, 0xfc, 0x05, 0xf2, 0xfb, 0xfe, 0xf4, 0x08, 0xf9, 0x00,
  0xfc, 0x0f, 0xfe, 0x06, 0xf7, 0x0e, 0x02, 0x01, 0xfe, 0x0c, 0xf7, 0x05,
  0x0b, 0xf2, 0xff, 0x02, 0xfc, 0xfe, 0x07, 0xfc, 0xfc, 0x05, 0xff, 0x06,
  0xf4, 0xfa, 0xfd, 0x0e, 0xfb, 0x04, 0x05, 0xff, 0x01, 0x02, 0xf7, 0x2b,
  0xe6, 0x01, 0xe3, 0x15, 0x13, 0x14, 0xe8, 0xd0, 0xca, 0xca, 0x14, 0xdc,
  0xff, 0xe5, 0x0c, 0x15, 0xf4, 0xc0, 0x45, 0xf4, 0xee, 0x1e, 0x14, 0xdd,
  0x44, 0xec, 0x30, 0xd0, 0xf3, 0x02, 0x0b, 0xfb, 0x07, 0xf5, 0xfc, 0x01,
  0x0e, 0xff, 0x06, 0x08, 0xf7, 0x0d, 0x08, 0x0a, 0x0b, 0xf7, 0xfc, 0x0e,
  0xf4, 0x03, 0x06, 0x0e, 0xf1, 0xfb, 0x0f, 0xf6, 0x05, 0xf3, 0x0a, 0x05,
  0xfa, 0xf2, 0xf8, 0xf7, 0xf8, 0x06, 0xf7, 0x02, 0xf5, 0x06, 0x07, 0x07,
  0x0b, 0x0d, 0xf8, 0xfa, 0x07, 0xf4, 0xfc, 0x0c, 0xf8, 0xfc, 0x06, 0x02,
  0xf5, 0xfb, 0xfc, 0xf2, 0x09, 0x01, 0x0b, 0xfb, 0x29, 0x0e, 0x25, 0x25,
  0xfd, 0x02, 0xe6, 0xea, 0x07, 0xdf, 0x09, 0x11, 0xe8, 0xf5, 0x03, 0x1a,
  0x16, 0xcd, 0x0a, 0x0c, 0xd8, 0x02, 0xfd, 0xd8, 0xbe, 0xef, 0xfa, 0x01,
  0x34, 0xeb, 0x13, 0xf1, 0xf2, 0xf5, 0xf7, 0x0b, 0x0d, 0x03, 0xf1, 0xf7,
  0xfa, 0xf8, 0xf8, 0xfe, 0x0e, 0xf4, 0xfd, 0x0c, 0x0e, 0x0b, 0x08, 0xfd,
  0x0e, 0xfd, 0x03, 0x0f, 0x0d, 0x08, 0x0b, 0x0d, 0xf4, 0x05, 0x03, 0x0a,
  0x02, 0x04, 0x07, 0xff, 0xfb, 0x03, 0x00, 0x0f, 0xf4, 0x0d, 0xff, 0xfc,
  0x01, 0x01, 0x0a, 0xf9, 0xfa, 0xf8, 0x0c, 0xf7, 0xff, 0x04, 0x0a, 0x05,
  0x05, 0xf8, 0xf5, 0xfb, 0xf1, 0xf1, 0xff, 0xfd, 0xf0, 0x06, 0xe9, 0x03,
  0x26, 0x1c, 0xf7, 0xd8, 0x09, 0xec, 0x37, 0xdb, 0x09, 0x14, 0x04, 0x16,
  0xf7, 0x15, 0x0b, 0x07, 0x16, 0xb0, 0x81, 0x22, 0xf1, 0xe0, 0x0d, 0xfb,
  0xc9, 0xef, 0xb3, 0xfe, 0x05, 0xf9, 0xf3, 0x05, 0xf7, 0xf8, 0xf8, 0x05,
  0x07, 0xfe, 0x0f, 0x04, 0xf3, 0xfb, 0xfd, 0x02, 0x03, 0x0f, 0x08, 0x07,
  0x0c, 0xfc, 0x01, 0x09, 0xf6, 0xf2, 0x0c, 0xfc, 0x04, 0x08, 0xf8, 0xf9,
  0x11, 0x16, 0xf2, 0x0f, 0xf5, 0xf8, 0x07, 0x0b, 0x03, 0x0c, 0x0b, 0x14,
  0x04, 0xf8, 0x0a, 0x02, 0xfb, 0xed, 0x15, 0xf2, 0x06, 0xf3, 0xf9, 0xf5,
  0x01, 0xef, 0xf7, 0x07, 0x0c, 0xeb, 0x0e, 0x10, 0xd3, 0x08, 0xe3, 0x2d,
  0xe4, 0xe1, 0x07, 0x18, 0xf0, 0x25, 0xac, 0x9a, 0xd4, 0x2b, 0xfa, 0xef,
  0x11, 0xda, 0x03, 0x41, 0x51, 0xd0, 0xeb, 0x02, 0x18, 0x17, 0x09, 0xb5,
  0x14, 0xad, 0xea, 0x29, 0x0d, 0x0f, 0x0f, 0xf0, 0x0b, 0xfd, 0x0d, 0xee,
  0x0e, 0x0f, 0xea, 0x09, 0xee, 0xfe, 0xeb, 0x0c, 0xf0, 0xfb, 0xfa, 0x04,
  0xf1, 0xf0, 0xfb, 0xf6, 0x05, 0x08, 0xf4, 0xee, 0x0c, 0xfb, 0xf0, 0x04,
  0xf3, 0x12, 0x0b, 0xef, 0x08, 0x04, 0x10, 0xfe, 0xfe, 0xff, 0xff, 0x12,
  0xea, 0x04, 0xf5, 0xee, 0xfa, 0xef, 0x07, 0x10, 0x01, 0x0c, 0xea, 0xf8,
  0xeb, 0xff, 0xf9, 0xf1, 0x09, 0xee, 0x01, 0xfe, 0xfa, 0x1a, 0xe5, 0x19,
  0xe0, 0x3f, 0xc9, 0x1a, 0x1b, 0x4f, 0xc4, 0xd6, 0xdf, 0x1a, 0x13, 0x4b,
  0x81, 0xc9, 0x17, 0x17, 0x8c, 0xd0, 0x08, 0xeb, 0xa6, 0x9e, 0xfd, 0xbe,
  0x20, 0xe9, 0x01, 0x15, 0xfb, 0xed, 0x10, 0xea, 0xfc, 0x02, 0x0e, 0xfa,
  0x10, 0xec, 0x02, 0x0c, 0x03, 0xeb, 0x08, 0x0c, 0xff, 0x14, 0x10, 0xf6,
  0xed, 0xf3, 0xfb, 0x10, 0xeb, 0x0a, 0x14, 0x04, 0xf7, 0x10, 0xee, 0x0c,
  0x01, 0xf0, 0x0c, 0x0c, 0xff, 0xfe, 0xf5, 0x06, 0xef, 0xf2, 0x00, 0xff,
  0x17, 0x16, 0x06, 0x14, 0xf7, 0x14, 0x01, 0x11, 0x01, 0xfb, 0x0e, 0x03,
  0x08, 0xf9, 0x01, 0x05, 0x09, 0x07, 0x02, 0xf1, 0x17, 0x1d, 0xe9, 0x0f,
  0x3d, 0xe3, 0xe5, 0x23, 0xee, 0x25, 0xf1, 0xd2, 0x00, 0xc0, 0x16, 0x18,
  0xf2, 0xe9, 0x12, 0xe0, 0xe4, 0x37, 0xbe, 0x04, 0xfb, 0x93, 0x12, 0x25,
  0x9a, 0x03, 0x93, 0x31, 0xff, 0x02, 0xf7, 0x08, 0x12, 0xfa, 0xf4, 0xf5,
  0x06, 0xf1, 0x14, 0x16, 0xf0, 0xfa, 0x00, 0xf0, 0xfd, 0x07, 0x08, 0xfe,
  0x0f, 0xfd, 0x14, 0x0c, 0xea, 0xf8, 0x05, 0x0b, 0x0d, 0x06, 0xeb, 0xf0,
  0x0c, 0x0c, 0xee, 0xf1, 0xef, 0x07, 0xf7, 0x09, 0x11, 0x07, 0x12, 0xf9,
  0x00, 0x11, 0xf8, 0xf0, 0xee, 0x02, 0x05, 0xfa, 0xf1, 0xfe, 0x01, 0x11,
  0x06, 0xf2, 0xfb, 0x03, 0xef, 0xf0, 0x04, 0x0a, 0xd0, 0x18, 0x40, 0x15,
  0xfd, 0x0f, 0x1d, 0xfa, 0x1e, 0x09, 0x46, 0xf8, 0x17, 0xcf, 0xaa, 0xf9,
  0x1b, 0xdf, 0xff, 0xe9, 0x21, 0xef, 0x4a, 0x18, 0x1e, 0x1e, 0x08, 0x2a,
  0xe7, 0xe4, 0xb6, 0xf7, 0xf8, 0x01, 0x08, 0xf2, 0x01, 0x08, 0x0c, 0x07,
  0xf9, 0xf5, 0xf6, 0x02, 0xfb, 0x09, 0xfa, 0x02, 0xf8, 0x09, 0xfd, 0x11,
  0x11, 0x0b, 0xf4, 0x12, 0x01, 0xf4, 0x0f, 0xf2, 0x08, 0x00, 0x04, 0xfd,
  0xf4, 0xf5, 0x05, 0x03, 0xf4, 0xf4, 0xff, 0x00, 0xff, 0x0e, 0x03, 0x04,
  0xfc, 0x01, 0x06, 0x0b, 0x09, 0x01, 0x03, 0x03, 0x06, 0x0d, 0xf3, 0xf8,
  0xf6, 0x0e, 0x0d, 0xf4, 0x0e, 0x0c, 0x09, 0xf9, 0xc4, 0xc7, 0xe2, 0x0e,
  0x22, 0xf7, 0xe2, 0x43, 0xfc, 0xbc, 0x18, 0x34, 0x02, 0xdc, 0xe3, 0x0b,
  0x02, 0xc2, 0xdc, 0xcf, 0x03, 0xc5, 0x21, 0xea, 0x0a, 0x26, 0xf8, 0x25,
  0x01, 0xcb, 0xed, 0xb4, 0x0f, 0x11, 0xfe, 0xff, 0xf1, 0x03, 0xfe, 0xf0,
  0xef, 0x11, 0xef, 0x0d, 0x0b, 0x12, 0xf5, 0xff, 0xee, 0x05, 0x10, 0x04,
  0xfb, 0x09, 0x0e, 0x0a, 0x07, 0xee, 0x12, 0xff, 0x0f, 0xfd, 0x11, 0xf2,
  0x0e, 0xfe, 0x06, 0x06, 0xff, 0xfc, 0xee, 0x0e, 0x06, 0xfc, 0x0e, 0xf1,
  0xfb, 0x0d, 0xf1, 0x11, 0xfe, 0x00, 0x08, 0x05, 0x03, 0x05, 0xf8, 0x04,
  0x0a, 0xf7, 0xf7, 0x0c, 0xf2, 0xfc, 0x0f, 0x0e, 0x1e, 0xf2, 0xed, 0x04,
  0xba, 0xd1, 0x81, 0xfc, 0xe8, 0xd3, 0xfe, 0x16, 0x16, 0x17, 0x38, 0xdc,
  0xf2, 0xc0, 0x02, 0x03, 0xf6, 0x14, 0x04, 0xc4, 0xf2, 0x18, 0xc9, 0x0b,
  0x3c, 0xf5, 0x3b, 0x0c, 0x0b, 0xed, 0xee, 0x09, 0x07, 0xf3, 0x09, 0x0d,
  0xf2, 0xfe, 0xf9, 0x06, 0x05, 0x12, 0xf5, 0x09, 0x05, 0x06, 0x04, 0x0d,
  0x0c, 0x04, 0x0b, 0x0f, 0xf3, 0xf9, 0xf4, 0xf0, 0x0a, 0x0b, 0x02, 0x04,
  0x05, 0x15, 0xf0, 0xf4, 0xf5, 0xef, 0x0e, 0xf6, 0xfc, 0xf9, 0x04, 0x0e,
  0x00, 0x11, 0xf0, 0x15, 0xfd, 0x02, 0xed, 0xfd, 0x07, 0x00, 0x0d, 0x15,
  0xfa, 0x02, 0x0e, 0xef, 0xf8, 0x0a, 0x14, 0x08, 0xe0, 0x5a, 0xde, 0xff,
  0x02, 0x21, 0x14, 0x3d, 0x1c, 0xcf, 0x0e, 0x13, 0x17, 0x02, 0x27, 0xbc,
  0xc6, 0x0e, 0x2d, 0xc9, 0xf1, 0xeb, 0xfa, 0xf7, 0x04, 0xb7, 0x48, 0xde,
  0xba, 0xfb, 0xfb, 0xdc, 0xf9, 0xf4, 0x0d, 0x0b, 0xec, 0xec, 0xfb, 0x04,
  0x0a, 0xee, 0x0e, 0xf8, 0xef, 0xef, 0xf2, 0xee, 0x0a, 0x0c, 0xf6, 0xf3,
  0xf8, 0xfb, 0xfa, 0x11, 0xeb, 0xee, 0x09, 0x0b, 0x07, 0x14, 0xff, 0xef,
  0x13, 0xeb, 0xf9, 0xf5, 0xf8, 0xf2, 0x0c, 0xf1, 0x13, 0x01, 0xff, 0xfc,
  0x15, 0xf1, 0xf0, 0xfa, 0xf0, 0xea, 0x13, 0xf4, 0xed, 0xeb, 0xf3, 0xfe,
  0x10, 0xef, 0xef, 0xf9, 0x08, 0xec, 0xf8, 0xff, 0xeb, 0x22, 0x2d, 0x38,
  0x08, 0xcf, 0xdf, 0x2a, 0xea, 0xfe, 0x0c, 0x00, 0xed, 0xbc, 0xe8, 0x06,
  0x38, 0x05, 0x25, 0xe6, 0xa4, 0x10, 0x48, 0x28, 0x23, 0x35, 0x22, 0xf7,
  0x04, 0xee, 0xd2, 0xa0, 0xf8, 0x10, 0xf2, 0xfc, 0x0c, 0x03, 0x14, 0xf9,
  0x01, 0xfe, 0xed, 0xee, 0x13, 0x15, 0xf8, 0x05, 0xfa, 0xec, 0x0e, 0x00,
  0xf1, 0x0b, 0xfb, 0x05, 0x03, 0xf3, 0x0c, 0xf3, 0x09, 0xf1, 0x03, 0x0b,
  0xf4, 0xf7, 0x12, 0x14, 0x0f, 0x0e, 0xfa, 0x07, 0x10, 0xfe, 0xf2, 0xf5,
  0xf7, 0x08, 0xff, 0xf8, 0xfe, 0xeb, 0x11, 0xf5, 0x0f, 0xf9, 0xf6, 0x01,
  0xf1, 0x04, 0x03, 0x11, 0xee, 0xed, 0x04, 0x0e, 0x25, 0xfe, 0xe0, 0x1a,
  0xfb, 0x1d, 0xeb, 0xf9, 0xc8, 0xd4, 0x18, 0x11, 0x91, 0xe4, 0x39, 0xe4,
  0xf8, 0xb2, 0x81, 0xc2, 0xce, 0xe7, 0xb5, 0x4b, 0x0b, 0x0b, 0xad, 0xce,
  0xba, 0x31, 0xe0, 0x3c, 0x09, 0x11, 0xfc, 0xec, 0xfa, 0xf2, 0x0f, 0xee,
  0xf8, 0x02, 0xf7, 0xfa, 0xf9, 0x13, 0x05, 0xfc, 0xfc, 0xfe, 0x0e, 0x11,
  0x16, 0xec, 0xf6, 0x00, 0x05, 0xf5, 0x13, 0x14, 0xff, 0x01, 0xf6, 0xee,
  0x09, 0xf2, 0xf9, 0xfc, 0xff, 0x03, 0x10, 0x0d, 0x02, 0xf4, 0x0d, 0x08,
  0x0d, 0x09, 0x09, 0x04, 0xf5, 0xfb, 0x00, 0x05, 0x03, 0xfc, 0xfd, 0x0e,
  0x04, 0x06, 0xff, 0xf4, 0x05, 0x00, 0xfb, 0xfa, 0x18, 0xf2, 0xc7, 0x05,
  0xce, 0xfb, 0xf3, 0xec, 0x2b, 0xf2, 0xe1, 0x12, 0x17, 0x2c, 0xd6, 0xdc,
  0xd2, 0xe1, 0xee, 0xf5, 0xcb, 0x01, 0x06, 0xe8, 0x30, 0xff, 0xd7, 0x36,
  0x29, 0xfd, 0x10, 0xf4, 0x10, 0xfa, 0x04, 0x0e, 0x0f, 0xf9, 0x04, 0xf5,
  0xfb, 0x01, 0xf2, 0x07, 0x02, 0xf6, 0x05, 0xf5, 0xfc, 0x10, 0xf0, 0xfe,
  0xf0, 0x0a, 0xf9, 0x0e, 0xf5, 0xfb, 0x03, 0xf4, 0xf5, 0xf2, 0xf9, 0xf9,
  0x08, 0x0a, 0xff, 0xf6, 0xf3, 0x04, 0xf5, 0xf4, 0x10, 0x0b, 0x00, 0x01,
  0xfa, 0x06, 0x00, 0x06, 0x05, 0x0e, 0xf4, 0xfb, 0xf8, 0xfd, 0x01, 0x0e,
  0x06, 0x09, 0x00, 0x08, 0xf9, 0xf5, 0x05, 0x0a, 0x00, 0x0b, 0x3e, 0x0b,
  0x1f, 0xe8, 0x2d, 0x06, 0xef, 0x06, 0xe8, 0xcd, 0x2e, 0x07, 0x0a, 0xcf,
  0xd4, 0xe8, 0x1f, 0xf3, 0x17, 0xe8, 0x25, 0x1e, 0xc9, 0xf7, 0xb0, 0xd5,
  0x22, 0x18, 0x0e, 0xdc, 0xf9, 0x05, 0xf1, 0xf7, 0xfe, 0x02, 0xf3, 0x07,
  0xf9, 0xfa, 0x06, 0xfa, 0x0e, 0x0d, 0xff, 0xf8, 0xfc, 0xf9, 0x07, 0x02,
  0x10, 0x08, 0x0b, 0x06, 0x0c, 0xf6, 0x0a, 0xf3, 0x03, 0xff, 0x05, 0xfa,
  0x10, 0x0a, 0x08, 0x0c, 0x01, 0x10, 0xf9, 0x01, 0xfb, 0x06, 0x02, 0xfd,
  0xfa, 0x0e, 0x01, 0x08, 0x0a, 0xfe, 0xfe, 0x0a, 0x0b, 0xfe, 0x06, 0x00,
  0xf2, 0xf2, 0xfa, 0x00, 0x08, 0xf7, 0xf2, 0x02, 0x19, 0xbe, 0x27, 0x22,
  0xe8, 0xdb, 0x0e, 0x08, 0xdb, 0xf3, 0x36, 0xe2, 0x1f, 0x07, 0x26, 0xe2,
  0x2f, 0xef, 0x06, 0xe3, 0xe4, 0xe1, 0xec, 0x19, 0xe0, 0x1d, 0x81, 0xdb,
  0xc6, 0xf4, 0xe9, 0x30, 0x04, 0xf0, 0x0b, 0xf9, 0xfe, 0x0e, 0x03, 0xf4,
  0x07, 0x0f, 0x08, 0x0f, 0x01, 0xf9, 0xfe, 0x06, 0x10, 0x00, 0x01, 0xf7,
  0xfd, 0xf1, 0xf3, 0xf7, 0x07, 0x10, 0x0d, 0xff, 0xff, 0xf2, 0x01, 0x05,
  0x12, 0xed, 0x11, 0x03, 0x0d, 0xfc, 0x0f, 0x01, 0xf7, 0x04, 0x04, 0x13,
  0xfc, 0xed, 0xec, 0x0f, 0x0b, 0x0c, 0x11, 0x02, 0xf8, 0x0c, 0xf3, 0xfe,
  0x0c, 0x09, 0x13, 0xf0, 0x13, 0xec, 0xee, 0xed, 0x36, 0x6a, 0xb8, 0x3e,
  0x2a, 0x0c, 0x22, 0xea, 0xf8, 0x1c, 0xcf, 0xd2, 0xd7, 0x1b, 0x07, 0xd4,
  0xb1, 0xa5, 0x04, 0xe9, 0x28, 0xf9, 0xe4, 0x81, 0x2c, 0xd2, 0x0d, 0xbc,
  0x3d, 0x1f, 0x1d, 0xe2, 0x0d, 0x06, 0xf8, 0xef, 0x11, 0x05, 0xf0, 0xef,
  0xf8, 0x11, 0xff, 0x13, 0x0c, 0xf4, 0xfc, 0x0e, 0xf9, 0x00, 0x15, 0xec,
  0x10, 0x10, 0xf3, 0x00, 0xf8, 0xfb, 0xfe, 0x0d, 0xf9, 0x14, 0x13, 0xef,
  0xfa, 0xf6, 0x12, 0x05, 0xfa, 0xf0, 0x11, 0xf7, 0x0b, 0x05, 0x06, 0xfd,
  0x02, 0xf9, 0x14, 0x04, 0xff, 0xec, 0x15, 0xff, 0xf5, 0x0a, 0xee, 0xfd,
  0x09, 0xf3, 0xf7, 0xf5, 0xf1, 0xee, 0xf6, 0xf4, 0xe8, 0x2f, 0xff, 0x19,
  0xaa, 0x3a, 0xc3, 0xf7, 0xe1, 0x0d, 0xec, 0xef, 0xfe, 0x06, 0xc0, 0x16,
  0xf5, 0x1d, 0x40, 0x11, 0x9c, 0xd5, 0xf7, 0x9f, 0xfd, 0x24, 0xbf, 0xcc,
  0xf2, 0x0e, 0xff, 0xe4, 0x0e, 0x07, 0xf6, 0xf0, 0xfe, 0x11, 0x07, 0x0d,
  0xef, 0x0c, 0xf5, 0x0d, 0xff, 0x12, 0x07, 0xf0, 0x12, 0x0f, 0xf3, 0xee,
  0xf3, 0xfd, 0x0f, 0x0c, 0xf7, 0xf4, 0x06, 0x13, 0x0e, 0x01, 0x10, 0xed,
  0xfa, 0xfe, 0xfb, 0x05, 0x0c, 0x13, 0xf7, 0x12, 0x12, 0xf2, 0x0e, 0x11,
  0xf0, 0x00, 0x13, 0x06, 0xfb, 0xfc, 0xf9, 0xfa, 0x01, 0x15, 0x05, 0x0b,
  0xf8, 0xf3, 0xff, 0xf6, 0xec, 0xf9, 0xfd, 0x0e, 0x24, 0xd4, 0x04, 0x25,
  0xfe, 0xe1, 0xe2, 0xfa, 0x2a, 0xf0, 0x36, 0xfc, 0xed, 0xcd, 0x02, 0x27,
  0xd7, 0xea, 0x01, 0xb0, 0xc7, 0x17, 0xea, 0x18, 0xe9, 0x3b, 0xed, 0x25,
  0xe5, 0x1a, 0xd6, 0xcc, 0xf3, 0x07, 0xfd, 0xfc, 0xf8, 0x04, 0x01, 0xeb,
  0x06, 0x12, 0x00, 0x03, 0x01, 0xec, 0x0c, 0x0e, 0x0a, 0x00, 0xf1, 0x03,
  0xf8, 0x15, 0x13, 0xf9, 0xed, 0x0d, 0x02, 0x0c, 0xfa, 0x13, 0x0a, 0xfd,
  0x11, 0xfb, 0xfd, 0xef, 0x06, 0xfc, 0x0a, 0xfa, 0xf0, 0xf8, 0xf6, 0xfb,
  0x02, 0x09, 0x02, 0xf8, 0xfb, 0x08, 0x0d, 0xf1, 0xf2, 0xf5, 0x0e, 0x0a,
  0xfd, 0x04, 0x07, 0x0f, 0x06, 0x0d, 0x0c, 0xf1, 0x20, 0x11, 0xf2, 0x39,
  0x3d, 0x21, 0x06, 0xe8, 0x1b, 0x08, 0xee, 0xe3, 0x00, 0x1f, 0xdc, 0xef,
  0xb0, 0x1c, 0xd0, 0xfc, 0xeb, 0xfa, 0xe0, 0xf7, 0x12, 0x1e, 0xe1, 0xdd,
  0x00, 0x11, 0xff, 0xde, 0xf4, 0xfa, 0xff, 0xfa, 0x08, 0xf9, 0xf4, 0xef,
  0x0a, 0x0a, 0xfd, 0xf4, 0x00, 0xef, 0x08, 0x10, 0xef, 0xf8, 0x10, 0x10,
  0x0e, 0xfb, 0xf8, 0x09, 0xf5, 0xfa, 0xf6, 0xf5, 0xf4, 0xf7, 0xf5, 0xff,
  0x11, 0x04, 0xfb, 0x01, 0xf7, 0x0c, 0xfd, 0xf4, 0xef, 0xfa, 0x05, 0x01,
  0xf2, 0x00, 0xf2, 0x0e, 0xfc, 0x0d, 0xfb, 0xfd, 0x10, 0x0b, 0x02, 0x0b,
  0x0c, 0x10, 0x04, 0x0a, 0xf6, 0xf4, 0xfd, 0x07, 0x07, 0xd9, 0xde, 0x04,
  0x32, 0xe7, 0xa4, 0x0a, 0x24, 0x23, 0xff, 0xe2, 0xdd, 0xbd, 0x07, 0x09,
  0xfb, 0x0c, 0xde, 0x3b, 0xb3, 0xf8, 0xe5, 0xe1, 0x7f, 0xcc, 0x04, 0x10,
  0xf8, 0x23, 0xf1, 0xd7, 0xf1, 0xf6, 0x02, 0x10, 0xf7, 0xf6, 0xf6, 0x00,
  0x0b, 0xef, 0xf0, 0x08, 0xf0, 0xf0, 0xf7, 0xf7, 0xf2, 0xfb, 0xf9, 0xf7,
  0x0e, 0x11, 0xf6, 0x0e, 0xfe, 0xef, 0x01, 0x03, 0x0a, 0x07, 0x07, 0xf3,
  0x02, 0x0d, 0x09, 0xf9, 0xf7, 0xf8, 0x03, 0x0a, 0x11, 0x0b, 0x09, 0x01,
  0xfd, 0x01, 0xfd, 0x0c, 0x03, 0x0c, 0xfe, 0xfa, 0xf7, 0xfc, 0xf5, 0xf7,
  0x04, 0xf5, 0xfd, 0xfa, 0xf0, 0xfc, 0xf0, 0x05, 0x07, 0xd4, 0xf7, 0x13,
  0xe9, 0xe0, 0xee, 0xf3, 0xf2, 0xe4, 0x0a, 0xf8, 0xf7, 0xc4, 0x01, 0xc1,
  0xe9, 0x0f, 0x27, 0x0a, 0xc7, 0x2d, 0xe3, 0x0f, 0x49, 0xff, 0x18, 0x21,
  0xc1, 0x04, 0x0c, 0xe5, 0x02, 0xfa, 0x08, 0xf7, 0x11, 0x08, 0x0b, 0xf4,
  0x0e, 0x03, 0x10, 0xf5, 0x01, 0xf4, 0xf7, 0x0d, 0xf0, 0x04, 0xfc, 0xfe,
  0x0e, 0x04, 0x0b, 0xf3, 0xf9, 0x10, 0x06, 0xfb, 0xef, 0xf3, 0xf1, 0xf7,
  0xf9, 0x10, 0x0f, 0xf5, 0x01, 0x0e, 0xfc, 0xf7, 0x0c, 0xfd, 0x04, 0x07,
  0x0a, 0x11, 0x11, 0xfd, 0xf2, 0x09, 0x0f, 0xf0, 0xef, 0xf0, 0x00, 0xfe,
  0x03, 0xef, 0x04, 0x04, 0xf8, 0x06, 0x00, 0xf9, 0xd0, 0xf1, 0xcb, 0x07,
  0xed, 0x1f, 0xdc, 0x24, 0xfa, 0xd9, 0xfc, 0xa0, 0xad, 0xdf, 0xde, 0x03,
  0xee, 0xe5, 0x98, 0xec, 0xe4, 0xc9, 0x12, 0x18, 0x34, 0xcd, 0xf9, 0x01,
  0x2c, 0x0c, 0xea, 0xf9, 0xfc, 0x09, 0x11, 0x10, 0xef, 0x0a, 0x00, 0x0a,
  0xf2, 0x10, 0xfd, 0x0d, 0x01, 0xfa, 0x02, 0xf3, 0xf3, 0xf0, 0x01, 0x08,
  0x00, 0x04, 0xff, 0x03, 0xff, 0x0d, 0xf2, 0xf2, 0xf5, 0x02, 0xf2, 0xf1,
  0xf0, 0xf8, 0xf9, 0xf1, 0x09, 0xf7, 0x04, 0x04, 0xf7, 0x0b, 0xef, 0x07,
  0xf0, 0xee, 0xfc, 0xf1, 0x11, 0xfa, 0xf8, 0xf7, 0x04, 0xef, 0xfc, 0xf5,
  0x0b, 0xfd, 0xf0, 0x08, 0xfb, 0x10, 0xf2, 0xf7, 0xea, 0x04, 0xed, 0x10,
  0xe5, 0xe7, 0xec, 0x10, 0x9b, 0x08, 0xd0, 0xf3, 0xb8, 0xe6, 0xf3, 0xf8,
  0xf8, 0xd1, 0xb3, 0xff, 0xe8, 0x05, 0x32, 0xdd, 0x37, 0xed, 0xd5, 0xfb,
  0x25, 0x20, 0xde, 0xfd, 0x10, 0xf4, 0xef, 0xfb, 0xf0, 0x08, 0x0b, 0xf6,
  0x0a, 0xf4, 0xf1, 0x0c, 0xf7, 0x06, 0x0a, 0x0b, 0x06, 0xf9, 0x03, 0x0c,
  0xf1, 0xf9, 0x0b, 0x11, 0xfe, 0x0b, 0xf4, 0x01, 0x04, 0x00, 0x0e, 0xf4,
  0x0a, 0x01, 0x0f, 0xf0, 0xfc, 0x0e, 0xf7, 0xfa, 0x0b, 0x11, 0x0d, 0x0f,
  0x01, 0x0b, 0x10, 0x11, 0xf9, 0x08, 0x12, 0x0a, 0xfd, 0xfc, 0x00, 0x02,
  0xf5, 0xfc, 0xf7, 0x04, 0xf8, 0x00, 0x04, 0x0a, 0xf4, 0x12, 0xfb, 0xca,
  0xf1, 0x81, 0x1d, 0xbf, 0xf9, 0x47, 0x1d, 0xfb, 0x28, 0xe6, 0x17, 0x15,
  0xe2, 0x25, 0xf8, 0x21, 0x08, 0xe9, 0xb2, 0x23, 0x14, 0xf5, 0xd4, 0xc5,
  0xef, 0xae, 0xea, 0x02, 0xf0, 0xf9, 0xfd, 0x04, 0x00, 0xf3, 0xfa, 0xfd,
  0x01, 0xf1, 0xf3, 0x0b, 0xf0, 0xfc, 0x05, 0x0b, 0xf8, 0x0a, 0xfb, 0x03,
  0xef, 0xf6, 0xef, 0x09, 0xfd, 0x0c, 0x11, 0x04, 0x06, 0xf9, 0x09, 0xff,
  0x08, 0xf2, 0x02, 0xeb, 0x07, 0xfc, 0xeb, 0x0b, 0xfa, 0x0e, 0xee, 0x0e,
  0x01, 0x02, 0xfc, 0x07, 0x02, 0xf8, 0xff, 0xf1, 0xff, 0x03, 0x11, 0x05,
  0xf4, 0x0e, 0xf6, 0xfc, 0xf0, 0xed, 0xfa, 0xf3, 0x05, 0x1c, 0x28, 0xdf,
  0x07, 0xfa, 0x98, 0xaf, 0xe2, 0x1d, 0x3d, 0x66, 0xe8, 0x3b, 0x1c, 0xab,
  0x0d, 0x3a, 0xfe, 0x4a, 0x04, 0xfd, 0xcd, 0xa6, 0xf8, 0x1d, 0xd4, 0x11,
  0xe1, 0x18, 0x93, 0x05, 0xf0, 0x13, 0xf6, 0x12, 0x0c, 0xef, 0xea, 0xf8,
  0xea, 0xf7, 0xfe, 0xeb, 0xf6, 0xff, 0xf1, 0xf1, 0xfe, 0x0d, 0x0b, 0xfe,
  0x07, 0x12, 0xea, 0xf1, 0x05, 0xf7, 0x05, 0x14, 0xf4, 0xfd, 0x05, 0x05,
  0xf6, 0x0f, 0xfc, 0x0a, 0x0b, 0xf1, 0xf6, 0xf6, 0xfa, 0x00, 0xef, 0xf9,
  0x15, 0x02, 0x07, 0x08, 0xef, 0xec, 0x00, 0x05, 0xfe, 0x10, 0xfb, 0xef,
  0xf8, 0xfa, 0x01, 0x0d, 0x00, 0xf6, 0xeb, 0xff, 0xbb, 0xe8, 0x2b, 0xdc,
  0x2c, 0xde, 0x81, 0xe6, 0xef, 0xe8, 0x12, 0xd4, 0xf4, 0x1e, 0xfd, 0xe5,
  0x00, 0xca, 0xca, 0x36, 0x25, 0x48, 0xe2, 0xe0, 0x12, 0xf7, 0xf1, 0xd9,
  0xe9, 0x4a, 0xb2, 0xfb, 0x00, 0xfd, 0x11, 0xed, 0xf2, 0x0e, 0x14, 0xec,
  0xfe, 0xf0, 0xf7, 0xf6, 0x01, 0x06, 0x11, 0xf0, 0xfe, 0xf1, 0xff, 0xff,
  0x0e, 0x13, 0xec, 0x03, 0x03, 0xe9, 0x0e, 0xf2, 0xf0, 0x12, 0x0c, 0xfd,
  0x04, 0xff, 0xfa, 0xed, 0x11, 0x01, 0x0e, 0x06, 0x05, 0xe9, 0x12, 0x07,
  0xf6, 0x08, 0x11, 0xf5, 0xee, 0x0d, 0x17, 0xff, 0x01, 0x0b, 0xeb, 0xfa,
  0xee, 0x01, 0x17, 0x0a, 0xf2, 0x05, 0xea, 0x10, 0x37, 0x0c, 0x37, 0xe6,
  0xd5, 0x9c, 0x89, 0x02, 0xff, 0x57, 0xe4, 0x40, 0xf2, 0x01, 0xdf, 0xda,
  0x27, 0xd8, 0x10, 0x38, 0x01, 0xf0, 0xf0, 0xa9, 0x05, 0x03, 0x86, 0x25,
  0xfe, 0xef, 0x0e, 0x12, 0xed, 0x09, 0x17, 0xf4, 0x0b, 0x02, 0x12, 0xf7,
  0xf7, 0x06, 0xf1, 0xed, 0x14, 0x06, 0x12, 0xfb, 0x09, 0x0b, 0x01, 0xf1,
  0x05, 0xef, 0x00, 0xe9, 0x01, 0xfe, 0xe9, 0x15, 0xfd, 0x09, 0x07, 0xee,
  0x05, 0x06, 0xf8, 0xfd, 0xf0, 0xf7, 0xf5, 0x0a, 0xf5, 0xff, 0xf3, 0xf3,
  0x0e, 0x0f, 0x0b, 0x0c, 0x06, 0x07, 0x06, 0x00, 0x0a, 0x05, 0xf0, 0x0a,
  0x0e, 0x0a, 0x03, 0xf1, 0x09, 0xf3, 0xfc, 0xf6, 0x0b, 0xe5, 0xdf, 0x3d,
  0x39, 0xcd, 0xd3, 0xfd, 0x04, 0x4e, 0x08, 0x37, 0xfe, 0xdd, 0xe5, 0xc5,
  0xff, 0xb4, 0xe5, 0x00, 0xc4, 0xeb, 0xe2, 0xff, 0xe7, 0x09, 0xec, 0x1a,
  0x35, 0xeb, 0x23, 0x81, 0xfc, 0xf1, 0x00, 0xf1, 0x07, 0x06, 0x04, 0x06,
  0xf1, 0x0b, 0x01, 0xf8, 0x04, 0xf8, 0xf6, 0xf2, 0xfd, 0xf9, 0x02, 0x0a,
  0x09, 0xf8, 0xfd, 0xf0, 0x02, 0xfc, 0xf0, 0x07, 0xff, 0xf5, 0x0a, 0xf3,
  0x0c, 0x01, 0xfa, 0xf3, 0x0e, 0xf6, 0x0e, 0x02, 0xf0, 0xfc, 0xf7, 0xf1,
  0xfe, 0xfb, 0xfb, 0x05, 0x08, 0xf5, 0x11, 0x03, 0x00, 0xf1, 0xf1, 0x0c,
  0xef, 0x0f, 0x03, 0x0f, 0x0a, 0x04, 0x0d, 0xf2, 0xf2, 0xe2, 0xe8, 0x37,
  0x19, 0xea, 0x09, 0x10, 0xf4, 0xfc, 0x0f, 0x08, 0xd7, 0xcb, 0xa5, 0x11,
  0xd0, 0xd8, 0xd4, 0xf4, 0xaa, 0xfe, 0xfa, 0xf9, 0x2d, 0xdb, 0xd3, 0xf1,
  0x19, 0x21, 0x0e, 0x08, 0xff, 0xf4, 0xf7, 0x10, 0xff, 0xf9, 0x01, 0x02,
  0x04, 0xf2, 0x06, 0x08, 0x04, 0x10, 0x00, 0xf2, 0xfa, 0xfb, 0x0b, 0xfc,
  0x0c, 0xf6, 0xf3, 0x0d, 0xf9, 0x00, 0xf0, 0x03, 0xf5, 0xfb, 0x10, 0xf7,
  0xf6, 0xfe, 0xf7, 0x05, 0x06, 0xf8, 0xfa, 0x05, 0x0c, 0x0c, 0x0f, 0x03,
  0x03, 0x0d, 0xfe, 0xf1, 0xf7, 0x04, 0x05, 0x0f, 0x09, 0xf4, 0xfa, 0xf9,
  0x05, 0xf4, 0x0c, 0x0f, 0xf4, 0xf3, 0x01, 0xf0, 0xc9, 0x0e, 0xda, 0xff,
  0xd1, 0xf8, 0x0b, 0x17, 0x17, 0xe4, 0xda, 0xf1, 0xf7, 0x0f, 0xe4, 0xff,
  0xe2, 0xdd, 0xe6, 0x1a, 0x0e, 0x12, 0xe0, 0xfe, 0x22, 0xf6, 0x2e, 0xe8,
  0xe9, 0xf6, 0xfb, 0x14, 0x03, 0xf1, 0xf8, 0xf1, 0x04, 0x0b, 0x05, 0x07,
  0xf2, 0xf4, 0x00, 0x05, 0xf5, 0x0c, 0xfa, 0xef, 0xff, 0xfe, 0x0b, 0xf4,
  0xf7, 0xf0, 0xf6, 0x09, 0xf8, 0xf0, 0xf3, 0xfa, 0xf2, 0x07, 0xf2, 0xfd,
  0xf8, 0xf8, 0x10, 0xfc, 0xf4, 0x06, 0xf8, 0x0a, 0x09, 0xfa, 0xf4, 0xf8,
  0xf3, 0xfa, 0xf9, 0xf2, 0xff, 0x11, 0xf6, 0xf8, 0x07, 0xfa, 0xf2, 0x08,
  0x0f, 0x08, 0xf1, 0xef, 0x0f, 0x0b, 0x05, 0x04, 0xe1, 0x18, 0x00, 0xee,
  0x2f, 0xc0, 0x05, 0x3e, 0x1f, 0x12, 0x20, 0x23, 0xf7, 0xc5, 0xca, 0xc3,
  0xeb, 0xbe, 0xe1, 0xc4, 0x25, 0xfd, 0xf3, 0x23, 0xeb, 0x81, 0x1a, 0xf9,
  0xd8, 0xd7, 0xb2, 0x01, 0xf9, 0x00, 0xf7, 0x03, 0xf8, 0x00, 0x0b, 0xf9,
  0xf0, 0xf1, 0x11, 0xfe, 0x0e, 0x0b, 0xf6, 0x08, 0xf4, 0x0c, 0x0b, 0x07,
  0x0a, 0x06, 0xfc, 0xfc, 0x00, 0x04, 0x07, 0x06, 0xf6, 0x0c, 0xf2, 0xfa,
  0xfc, 0xfe, 0x09, 0x0e, 0xfd, 0xfc, 0x11, 0xf1, 0x06, 0xf3, 0xf4, 0xf1,
  0x01, 0xfe, 0xf9, 0x0e, 0x00, 0xfe, 0x06, 0x10, 0x0f, 0xf0, 0xf3, 0x0f,
  0xfc, 0xfb, 0xef, 0xf5, 0x0f, 0x0e, 0xf6, 0x0e, 0xee, 0x08, 0x25, 0x30,
  0xfc, 0x1c, 0xc9, 0x2b, 0xfe, 0xf2, 0xea, 0xe6, 0x22, 0xdf, 0xdc, 0x2e,
  0x1c, 0xdf, 0xf4, 0xbe, 0x07, 0xf0, 0x18, 0x32, 0xe9, 0xf0, 0xef, 0x00,
  0xc9, 0x2e, 0xe2, 0xee, 0xf9, 0xfe, 0x0a, 0x03, 0x09, 0x05, 0xf1, 0x0e,
  0x0b, 0xef, 0x11, 0xfa, 0x0f, 0xfd, 0xf9, 0xfd, 0x02, 0xfa, 0x09, 0xff,
  0x04, 0x00, 0xf8, 0x0b, 0x10, 0x02, 0xfa, 0x0a, 0x04, 0xf7, 0x0e, 0x10,
  0xf5, 0x05, 0xf5, 0xfd, 0x03, 0xef, 0x0d, 0x0e, 0xf0, 0x01, 0x02, 0x06,
  0x11, 0xfb, 0x04, 0xf6, 0x00, 0x08, 0x06, 0xf8, 0x0e, 0x0d, 0xfa, 0xf9,
  0x0b, 0xf5, 0x07, 0xff, 0x0b, 0x0f, 0xf7, 0xff, 0xce, 0xd7, 0xf2, 0x0d,
  0xb6, 0xec, 0xed, 0xf1, 0xc1, 0x14, 0xfd, 0xe8, 0x03, 0xe5, 0xf4, 0x0f,
  0x17, 0xed, 0xd9, 0x09, 0xce, 0x0e, 0x24, 0xeb, 0xdf, 0xbf, 0x13, 0x10,
  0x14, 0xf7, 0xc9, 0x2c, 0x10, 0x0d, 0x11, 0x06, 0x0e, 0x02, 0x06, 0xf7,
  0x0b, 0x11, 0xf3, 0x0c, 0xfc, 0xf3, 0xf6, 0xf5, 0x07, 0x0d, 0xf6, 0x0a,
  0xef, 0xf2, 0xf4, 0x0b, 0x03, 0xf5, 0x0c, 0xf3, 0xf3, 0xef, 0xf9, 0xf4,
  0xf3, 0x13, 0x08, 0xf5, 0x0c, 0x07, 0x00, 0x0a, 0xf1, 0x0b, 0x08, 0x0f,
  0xfb, 0x12, 0xfc, 0x09, 0xf9, 0xfb, 0xf5, 0x04, 0xf1, 0xf7, 0xfd, 0xf9,
  0x03, 0x0b, 0xfa, 0xf6, 0x10, 0x0c, 0x09, 0x12, 0x05, 0xde, 0xda, 0xf3,
  0xed, 0xbb, 0x23, 0xb9, 0xf8, 0x21, 0x65, 0x36, 0xf9, 0xd0, 0xa9, 0xcd,
  0xfa, 0xd1, 0x81, 0x13, 0x4b, 0xde, 0x32, 0xea, 0xd9, 0x24, 0x89, 0x1a,
  0x07, 0x34, 0xd8, 0x30, 0x01, 0x02, 0x05, 0xfd, 0xfe, 0x00, 0x08, 0xfd,
  0xfe, 0x0a, 0xf9, 0xf5, 0x01, 0x05, 0xf9, 0xf8, 0xf3, 0x09, 0xf4, 0x11,
  0xfb, 0x12, 0xf4, 0xf2, 0x00, 0xec, 0xf6, 0xf0, 0xf6, 0x05, 0x06, 0x04,
  0xfd, 0x05, 0x0d, 0x08, 0x09, 0x12, 0xf1, 0xee, 0xfd, 0xf3, 0x05, 0xef,
  0xf8, 0x0f, 0x03, 0xec, 0xee, 0x06, 0xee, 0xf3, 0xfc, 0x0c, 0x0f, 0x10,
  0xf1, 0xee, 0x02, 0xf9, 0x06, 0xfb, 0xee, 0xf1, 0xb9, 0xf4, 0x39, 0xd8,
  0x36, 0x8c, 0x8d, 0xbf, 0x10, 0xe4, 0x25, 0x28, 0xc9, 0xf7, 0xc3, 0x0e,
  0xd7, 0xb7, 0x01, 0x3c, 0x20, 0x12, 0xf1, 0xd5, 0xfb, 0xdf, 0xf0, 0xe0,
  0xf7, 0xfb, 0xbc, 0xfc, 0x00, 0xef, 0x0e, 0x08, 0x13, 0xfb, 0xeb, 0x0b,
  0x11, 0xfb, 0xef, 0x06, 0x0b, 0x02, 0xf0, 0xee, 0x0c, 0x14, 0x00, 0x00,
  0x03, 0xf9, 0x07, 0xff, 0x15, 0xeb, 0xfa, 0xf1, 0x12, 0xec, 0xed, 0xfa,
  0x11, 0x0a, 0xf0, 0x0b, 0xf4, 0xff, 0xef, 0x07, 0xf4, 0x12, 0xfb, 0x02,
  0x08, 0xf6, 0x0e, 0x13, 0xf5, 0xf6, 0x04, 0x0b, 0x06, 0xee, 0x15, 0xf2,
  0x03, 0x00, 0x10, 0xf5, 0xef, 0x10, 0xf0, 0xed, 0x16, 0x0a, 0x17, 0x35,
  0xf3, 0xf5, 0xe2, 0x1b, 0xfe, 0xc2, 0xaa, 0xdf, 0x13, 0x0b, 0x10, 0xff,
  0x2f, 0xd1, 0x09, 0x36, 0x26, 0xda, 0xcd, 0xe9, 0x12, 0x0a, 0x15, 0xf9,
  0xed, 0xd8, 0x19, 0xcc, 0x0c, 0x10, 0xfa, 0x15, 0xf8, 0xf6, 0x16, 0xf5,
  0xec, 0xfc, 0xfa, 0x0b, 0xed, 0xf4, 0xf0, 0x01, 0xfb, 0xf3, 0x12, 0xf3,
  0xfd, 0xf6, 0x15, 0x03, 0xf0, 0x12, 0x07, 0x05, 0xee, 0x04, 0xfd, 0xf3,
  0x11, 0xf4, 0xf7, 0xfa, 0x06, 0x05, 0x11, 0x12, 0xf3, 0xeb, 0xf2, 0xfc,
  0xf9, 0x15, 0xee, 0x06, 0x01, 0x0b, 0xfc, 0x16, 0xfe, 0x0d, 0x11, 0xeb,
  0xf2, 0x17, 0x14, 0x10, 0x03, 0x12, 0x12, 0xea, 0xf1, 0x2a, 0xca, 0xe8,
  0xf7, 0x13, 0xe2, 0xde, 0x01, 0x33, 0xcb, 0x12, 0x04, 0x1f, 0xc2, 0x07,
  0xb0, 0xb2, 0x1c, 0xd6, 0x28, 0xe4, 0xff, 0x09, 0xf0, 0x39, 0x81, 0xff,
  0xff, 0xac, 0x31, 0xe4, 0x0d, 0xfe, 0xf5, 0xfa, 0x11, 0x12, 0x01, 0x03,
  0x17, 0xfd, 0x01, 0x0f, 0xee, 0xfc, 0x11, 0xfc, 0xee, 0xed, 0xea, 0xf4,
  0x07, 0x07, 0xf6, 0xf0, 0xee, 0x0b, 0x03, 0xf5, 0x0c, 0x03, 0xf2, 0x13,
  0x17, 0x13, 0xff, 0xfd, 0xfe, 0x16, 0x0a, 0x0b, 0x12, 0xef, 0xf0, 0x16,
  0x09, 0xed, 0xef, 0x0c, 0x0d, 0x00, 0x00, 0xf2, 0x0d, 0x13, 0x0c, 0x02,
  0xef, 0xf8, 0x05, 0x0b, 0xed, 0xf3, 0xf8, 0xee, 0x53, 0xf5, 0xe3, 0x37,
  0x63, 0xdf, 0xf2, 0xcc, 0x4d, 0x59, 0xb1, 0x27, 0xde, 0x21, 0x91, 0xfe,
  0xc3, 0xac, 0xb9, 0x0b, 0xe4, 0x2f, 0x2e, 0x4b, 0xe7, 0x29, 0xd6, 0x44,
  0x1e, 0xca, 0xeb, 0x9a, 0x13, 0xe9, 0xf7, 0x11, 0xfc, 0xeb, 0xf0, 0x08,
  0xe8, 0x09, 0xf1, 0x0f, 0xfa, 0x03, 0xf9, 0x0a, 0x13, 0x13, 0x07, 0xf6,
  0x12, 0xff, 0xf4, 0xea, 0xfc, 0x07, 0x18, 0xe9, 0x0d, 0x11, 0xfd, 0xf4,
  0x08, 0x0e, 0xed, 0xf7, 0xf4, 0x0c, 0x0c, 0x09, 0xee, 0xfd, 0xff, 0xf8,
  0xf8, 0x05, 0xf5, 0x16, 0x0d, 0xf5, 0xf2, 0x0f, 0x01, 0x0f, 0x11, 0xed,
  0x13, 0x15, 0x12, 0x14, 0xee, 0x13, 0x10, 0x14, 0xba, 0x15, 0x02, 0x0c,
  0x37, 0xee, 0x0a, 0xcd, 0xe7, 0xd0, 0x8d, 0xd8, 0xcc, 0x1b, 0x19, 0x08,
  0x38, 0xb9, 0xbf, 0xf2, 0x0e, 0xcc, 0xf0, 0xe9, 0xe9, 0xcc, 0x15, 0xe4,
  0x17, 0x61, 0x04, 0x23, 0x04, 0x03, 0x14, 0xe8, 0x0c, 0xef, 0xef, 0xf5,
  0x09, 0xfe, 0xf1, 0xf2, 0x05, 0x16, 0xec, 0x03, 0xe8, 0x0e, 0x11, 0xf2,
  0x17, 0x0a, 0xf7, 0x15, 0xfa, 0xf4, 0x16, 0xff, 0x05, 0xea, 0x09, 0xfa,
  0x13, 0x05, 0x08, 0x15, 0x0c, 0x16, 0xed, 0x11, 0x08, 0x0a, 0x0a, 0xef,
  0x0c, 0x09, 0x0f, 0xfe, 0xeb, 0x01, 0x02, 0x10, 0xfb, 0x0b, 0x01, 0x15,
  0xfc, 0xf3, 0x05, 0x01, 0xf3, 0xf2, 0x02, 0x13, 0x33, 0x32, 0xf0, 0x0a,
  0x06, 0xc6, 0x17, 0xd4, 0x0c, 0x58, 0x15, 0x23, 0x39, 0x02, 0x3a, 0x18,
  0x1c, 0x17, 0x32, 0xd3, 0x0e, 0xd7, 0x15, 0xb3, 0xe6, 0xe3, 0x35, 0xd7,
  0xf9, 0x33, 0xca, 0xe5, 0xee, 0x16, 0xef, 0x01, 0x06, 0xef, 0xf7, 0xfb,
  0xf7, 0xf4, 0xfa, 0xf0, 0xf1, 0xec, 0xfe, 0x03, 0x05, 0xf7, 0xfd, 0x09,
  0x15, 0xee, 0x07, 0x03, 0xed, 0xec, 0x0f, 0xef, 0x11, 0xec, 0xfe, 0xf5,
  0xfe, 0xf5, 0x03, 0x15, 0x0a, 0xfb, 0xfc, 0x02, 0x05, 0xf0, 0xef, 0xec,
  0x11, 0xf8, 0x0d, 0xf9, 0xf6, 0xf1, 0xfc, 0xeb, 0x03, 0xfa, 0x06, 0x0c,
  0xeb, 0xf5, 0xf8, 0xf4, 0xee, 0x0f, 0xf9, 0xef, 0xfa, 0xcd, 0xe3, 0xbc,
  0xcb, 0x13, 0x39, 0xee, 0x69, 0x05, 0xa9, 0x81, 0xf0, 0x09, 0xd7, 0x09,
  0x19, 0x0c, 0xec, 0xf7, 0x09, 0x13, 0xca, 0x09, 0xf5, 0x3c, 0xb6, 0xb0,
  0x27, 0x08, 0xe2, 0x2b, 0x0a, 0x03, 0xf2, 0xec, 0xf6, 0xee, 0x12, 0xed,
  0xf0, 0x12, 0x14, 0x12, 0xfa, 0x16, 0xea, 0x06, 0x0e, 0xfb, 0x09, 0x02,
  0xec, 0xf2, 0x0c, 0x07, 0x08, 0x04, 0xf6, 0xf8, 0xfa, 0x07, 0xfd, 0xf0,
  0x05, 0x01, 0x0f, 0xed, 0x0a, 0x07, 0xf6, 0xf0, 0xfd, 0xea, 0x16, 0xf7,
  0xfc, 0x01, 0x03, 0x04, 0x0f, 0x0b, 0x01, 0x01, 0xfa, 0x10, 0xee, 0xf2,
  0x0d, 0x0f, 0xfe, 0x01, 0x04, 0x02, 0x0c, 0xee, 0x08, 0xd8, 0x29, 0xee,
  0xb4, 0x2c, 0xde, 0x20, 0xa1, 0x13, 0xd7, 0x0c, 0xdf, 0xf4, 0xe1, 0xbf,
  0x40, 0x02, 0xf4, 0x49, 0xb2, 0x02, 0xad, 0x23, 0x23, 0x96, 0x2c, 0xd5,
  0x0d, 0xf5, 0x28, 0xfa, 0xf4, 0x08, 0xfe, 0x13, 0x03, 0x15, 0x11, 0xf1,
  0xfa, 0xf0, 0xf1, 0xf9, 0x15, 0xf6, 0x12, 0xf4, 0xf3, 0x06, 0x0f, 0x05,
  0x15, 0x0e, 0x07, 0x00, 0xf3, 0xf4, 0xf4, 0x11, 0x0f, 0x0c, 0x02, 0x12,
  0x02, 0x05, 0xf5, 0xfa, 0xfb, 0x03, 0xef, 0x00, 0xf6, 0x05, 0xf1, 0xfe,
  0xfd, 0x0c, 0x02, 0xfa, 0x0b, 0xf9, 0xf9, 0x0c, 0x0b, 0x06, 0xfc, 0xf0,
  0x01, 0x04, 0x0f, 0x01, 0x0a, 0x01, 0x0a, 0xf2, 0xf2, 0xff, 0x06, 0x35,
  0xdf, 0x16, 0x04, 0xe1, 0x20, 0xe5, 0xe2, 0xea, 0xe2, 0x38, 0x1d, 0xe5,
  0xd3, 0xfa, 0x37, 0xf3, 0xe3, 0xea, 0xf1, 0xf3, 0x05, 0xf8, 0xa4, 0x15,
  0x07, 0x32, 0x04, 0x34, 0xf0, 0x0d, 0xfc, 0xfa, 0xf3, 0x09, 0xf0, 0xf2,
  0x0e, 0x01, 0xf5, 0x0f, 0x0d, 0x09, 0xf6, 0xf7, 0x08, 0xfe, 0xf1, 0x02,
  0xf4, 0xf3, 0x04, 0xf0, 0x01, 0x00, 0xf2, 0x09, 0x0f, 0xfa, 0x04, 0xfd,
  0x00, 0xf9, 0x03, 0xf0, 0xfb, 0x06, 0xfe, 0xfa, 0x00, 0xfc, 0xf9, 0x0e,
  0xf0, 0xff, 0x00, 0x05, 0x04, 0xf7, 0x06, 0xef, 0x04, 0x0f, 0xf6, 0xf8,
  0xf6, 0x0c, 0xf8, 0xff, 0x08, 0xf9, 0x04, 0x10, 0x2d, 0x10, 0x10, 0xec,
  0x51, 0x07, 0xbb, 0x1f, 0x10, 0x35, 0xda, 0xd8, 0xcc, 0xf4, 0x01, 0x08,
  0xcb, 0xea, 0x0e, 0x07, 0xbf, 0xd3, 0x03, 0xb6, 0x0f, 0xe2, 0x07, 0xe7,
  0x0d, 0x12, 0xeb, 0x00, 0x0d, 0x0a, 0x11, 0x00, 0x0e, 0xfc, 0x07, 0xfa,
  0xf8, 0xf7, 0xf3, 0xf8, 0x09, 0x08, 0xfc, 0x0c, 0xfd, 0x0f, 0xf9, 0xf8,
  0xf5, 0xfc, 0xf4, 0xf8, 0xf3, 0xfd, 0x10, 0x0f, 0x05, 0x01, 0x02, 0x02,
  0xff, 0x02, 0xf2, 0x09, 0xff, 0xf8, 0xf1, 0x0d, 0xf1, 0xf7, 0x0d, 0x00,
  0xfd, 0xf9, 0x0b, 0x05, 0x07, 0xf8, 0xf3, 0x03, 0x0b, 0x02, 0xfa, 0xfd,
  0xf4, 0x0a, 0x10, 0x0e, 0x0a, 0xfa, 0x04, 0x10, 0xe9, 0x1a, 0x98, 0x42,
  0x03, 0xdf, 0xef, 0x13, 0xfa, 0x00, 0x20, 0x0b, 0x03, 0x15, 0xdc, 0x04,
  0x44, 0xf4, 0x21, 0x17, 0x04, 0xda, 0x81, 0x07, 0x1e, 0xd6, 0xe6, 0x05,
  0x25, 0xe9, 0x06, 0xb2, 0xf4, 0xfb, 0xf9, 0xf3, 0x05, 0x01, 0xfa, 0xfe,
  0x09, 0x06, 0x0d, 0xf5, 0x05, 0x0e, 0xfc, 0x01, 0xf5, 0x0f, 0xf9, 0xf5,
  0x03, 0x08, 0x0b, 0x0e, 0x06, 0xf6, 0x03, 0xf7, 0xf9, 0x04, 0xf4, 0xfd,
  0xff, 0xef, 0xee, 0xfe, 0xf0, 0xfe, 0xf7, 0x13, 0x11, 0x03, 0x0e, 0x14,
  0x11, 0xf1, 0xf8, 0xfb, 0xfb, 0x01, 0x01, 0xfc, 0x0d, 0x0c, 0xf7, 0x12,
  0xf4, 0xfa, 0xed, 0xf6, 0xf9, 0x05, 0xfe, 0x0a, 0xff, 0xec, 0xed, 0x12,
  0x11, 0x14, 0x01, 0xf5, 0xf4, 0xeb, 0xda, 0xfb, 0xe5, 0xfe, 0xe2, 0xc9,
  0x5e, 0xf8, 0x35, 0xd8, 0xea, 0xe5, 0x25, 0xe6, 0xa6, 0x81, 0x9c, 0xbd,
  0x5f, 0x35, 0xea, 0x04, 0xf7, 0xfc, 0xfd, 0x02, 0x05, 0x0e, 0x0a, 0x11,
  0x12, 0xef, 0xee, 0xf5, 0xf2, 0xfc, 0x10, 0xf9, 0xec, 0xef, 0x08, 0x10,
  0xf6, 0x01, 0x08, 0x14, 0xed, 0xee, 0xf3, 0x12, 0x0e, 0x02, 0x05, 0xf4,
  0xff, 0xf7, 0x03, 0x14, 0x10, 0xfe, 0x05, 0x14, 0xf3, 0xf3, 0xf3, 0x0b,
  0x11, 0xff, 0x0c, 0x14, 0xf4, 0x02, 0xf3, 0x09, 0xf0, 0x0d, 0x14, 0x02,
  0x0e, 0x0f, 0xf1, 0xec, 0xfb, 0xf2, 0xf3, 0x10, 0xf1, 0x2e, 0xef, 0xcf,
  0x02, 0xc7, 0x05, 0x22, 0xc5, 0x14, 0xe4, 0xfc, 0x28, 0x2f, 0x18, 0x3b,
  0x05, 0xf8, 0xff, 0x02, 0xdc, 0xc5, 0x2c, 0xa4, 0x12, 0xc9, 0xd5, 0xb2,
  0xef, 0xfb, 0xe4, 0xf1, 0x0b, 0xec, 0xf7, 0xf3, 0x09, 0x0a, 0x0a, 0x14,
  0xfb, 0xf9, 0x03, 0x12, 0x06, 0xf7, 0x06, 0xfa, 0x11, 0x0a, 0x06, 0x05,
  0x11, 0x0b, 0xf3, 0xf6, 0xfe, 0x00, 0x0f, 0xfd, 0xfd, 0x05, 0x05, 0x02,
  0x12, 0x0a, 0xf2, 0x01, 0xf3, 0xf0, 0x01, 0xf9, 0x11, 0x11, 0xf9, 0xfb,
  0xed, 0xf8, 0xec, 0xf8, 0x0c, 0xf6, 0xfa, 0x04, 0x12, 0xf8, 0x02, 0xfe,
  0x11, 0xf6, 0xfb, 0xed, 0x0d, 0xed, 0xf7, 0x10, 0x16, 0x03, 0xdf, 0xe0,
  0x14, 0xff, 0x09, 0x14, 0x39, 0x10, 0xef, 0xb3, 0x22, 0xfc, 0xfe, 0x50,
  0x93, 0x04, 0xe9, 0x0c, 0x26, 0x1a, 0xfd, 0x1a, 0x21, 0x2f, 0xf9, 0x27,
  0xa4, 0xef, 0xcc, 0xff, 0xec, 0xee, 0xed, 0x0c, 0x01, 0xfe, 0x08, 0x14,
  0x00, 0x0b, 0xf9, 0xf7, 0xff, 0xf6, 0xee, 0x04, 0x0d, 0xed, 0x04, 0xf7,
  0xfa, 0x03, 0xf7, 0x11, 0x13, 0x02, 0xf3, 0xfa, 0xfb, 0x0b, 0xed, 0xfc,
  0xfd, 0x08, 0xfd, 0xf6, 0x0e, 0x0e, 0x00, 0x0e, 0x05, 0x02, 0xf2, 0xf6,
  0xf4, 0xf0, 0x0d, 0x0c, 0x0b, 0xf2, 0x0b, 0xf7, 0x0f, 0x0b, 0x02, 0x09,
  0x09, 0xfc, 0x0a, 0x10, 0x03, 0x0b, 0x0b, 0xfd, 0x15, 0xf8, 0x2d, 0x2f,
  0xf8, 0xf8, 0x93, 0x20, 0x06, 0xe4, 0xfc, 0x05, 0x0b, 0x37, 0x81, 0xf4,
  0x0a, 0xbe, 0xff, 0x05, 0x01, 0x1f, 0xcb, 0xcd, 0xed, 0xe9, 0xfd, 0xf4,
  0x12, 0xe5, 0xf6, 0x1a, 0x02, 0xff, 0xf5, 0xf3, 0xf3, 0xfa, 0xf9, 0x0e,
  0x09, 0x04, 0x0e, 0x08, 0xf3, 0xfe, 0xf4, 0xf5, 0xf7, 0xf2, 0xf7, 0x03,
  0x0b, 0xf3, 0xf2, 0x0d, 0x03, 0x0b, 0x0a, 0x0e, 0x0a, 0x09, 0x10, 0xf0,
  0x0b, 0x0b, 0x00, 0xf7, 0x0f, 0xfb, 0x0d, 0x0f, 0xf5, 0xf5, 0x0a, 0x09,
  0x0b, 0xfc, 0x07, 0xfa, 0x01, 0x0e, 0x08, 0xfa, 0x0f, 0xf8, 0x03, 0xfe,
  0xf5, 0x09, 0x10, 0xfd, 0x09, 0x0a, 0x0c, 0xf7, 0xe5, 0x03, 0x15, 0x41,
  0xab, 0x15, 0xde, 0x10, 0x25, 0xf4, 0x13, 0x2e, 0x03, 0xc0, 0xf7, 0xfb,
  0x05, 0xdd, 0x07, 0x19, 0x1e, 0x1c, 0xe6, 0xdc, 0xd7, 0x12, 0x36, 0xca,
  0x0c, 0xc0, 0xff, 0x19, 0x06, 0x01, 0x09, 0x05, 0x0b, 0xf4, 0x08, 0x08,
  0x10, 0xf3, 0x0d, 0xf2, 0x0c, 0xf3, 0xf5, 0xf9, 0x00, 0xfd, 0xfc, 0x05,
  0x02, 0x04, 0x04, 0xf4, 0xf4, 0xf6, 0xf8, 0xf3, 0x02, 0x08, 0xf2, 0x0b,
  0x0e, 0x0c, 0x0b, 0x0c, 0x04, 0xfa, 0xfd, 0x05, 0xfe, 0xfe, 0xfc, 0x0b,
  0x0c, 0x0c, 0x08, 0xfd, 0xfd, 0x0b, 0x01, 0x09, 0xf2, 0xf4, 0x03, 0xf7,
  0x0c, 0xf6, 0xf5, 0xfe, 0x02, 0xf3, 0x0e, 0x09, 0x30, 0x0a, 0x16, 0x0a,
  0x0e, 0xf9, 0xe4, 0xb5, 0xdc, 0xed, 0x05, 0xfa, 0xff, 0xfb, 0x27, 0xef,
  0xdc, 0xfa, 0xd9, 0xef, 0x11, 0xae, 0x08, 0x20, 0x0a, 0x14, 0x07, 0xb8,
  0xe3, 0xba, 0xe5, 0xe7, 0x09, 0x06, 0x00, 0xff, 0xfb, 0xf9, 0xfc, 0xf0,
  0x01, 0x09, 0x02, 0x0d, 0x0f, 0x0f, 0xf2, 0xf7, 0xf4, 0xff, 0x02, 0x08,
  0xf6, 0xf9, 0x0d, 0xfe, 0xfc, 0xf6, 0x03, 0x00, 0xff, 0x01, 0x01, 0x07,
  0x0f, 0xff, 0xff, 0xed, 0xf1, 0xf4, 0xfd, 0xfd, 0x04, 0xfb, 0xf5, 0x0c,
  0x00, 0x0a, 0x0b, 0xed, 0x11, 0x0b, 0x0c, 0xf4, 0x0a, 0xf3, 0x03, 0xf7,
  0x11, 0xf0, 0x08, 0x04, 0xfb, 0xfa, 0xef, 0x04, 0x03, 0xf3, 0xd6, 0x22,
  0x0c, 0x8c, 0xe2, 0xe7, 0x1f, 0x4c, 0x0b, 0xfa, 0x1b, 0xec, 0xc6, 0xe3,
  0x41, 0x03, 0xeb, 0x99, 0xf0, 0x05, 0x0b, 0xe5, 0x00, 0xf4, 0x30, 0x0d,
  0xc2, 0x0d, 0xef, 0xc0, 0x0d, 0xf3, 0xf5, 0x08, 0xef, 0xf3, 0x02, 0xff,
  0x08, 0x07, 0xff, 0xf5, 0xef, 0xf5, 0x05, 0x0f, 0xf8, 0xf8, 0x0a, 0xf4,
  0x02, 0xfb, 0xfd, 0xef, 0xff, 0x0e, 0xf8, 0x0f, 0xee, 0x12, 0x12, 0xf9,
  0x03, 0xf4, 0xee, 0x0e, 0x03, 0x09, 0xf8, 0xfd, 0xf3, 0x0b, 0x0f, 0xee,
  0xfc, 0x06, 0x0f, 0x05, 0xfc, 0x02, 0x03, 0x00, 0xfc, 0xf5, 0x08, 0x02,
  0x07, 0x05, 0x0e, 0xf7, 0x11, 0xfa, 0x07, 0xf4, 0x0e, 0xe6, 0xde, 0x30,
  0x1e, 0xf9, 0x00, 0xd1, 0xdd, 0x31, 0x24, 0xd1, 0xd5, 0xe5, 0xf4, 0xd0,
  0x2d, 0xff, 0xd3, 0xdd, 0xe0, 0xbe, 0xc3, 0x37, 0x0e, 0xf2, 0xf7, 0xe3,
  0xf4, 0xeb, 0x09, 0x07, 0x12, 0x02, 0x00, 0xfd, 0xee, 0xfb, 0xf4, 0xff,
  0xf8, 0x02, 0xef, 0xf1, 0xf2, 0xf6, 0xfb, 0x04, 0x02, 0xff, 0xfe, 0xf6,
  0x0c, 0xee, 0x09, 0xf4, 0xf0, 0xfa, 0x01, 0x09, 0x09, 0xf2, 0xf4, 0x0c,
  0xf6, 0xf5, 0xfa, 0xee, 0x0c, 0x0a, 0xfe, 0xfe, 0x06, 0x11, 0x0f, 0xf1,
  0xf6, 0xfc, 0xf5, 0xf1, 0xfc, 0xf2, 0xfd, 0x02, 0xee, 0x00, 0x07, 0x12,
  0xf5, 0x05, 0xfb, 0x0b, 0x00, 0x0d, 0xf8, 0x07, 0x0b, 0xfa, 0xff, 0xee,
  0xc7, 0xef, 0x2b, 0xca, 0xc4, 0x09, 0xd9, 0x05, 0xdf, 0xd5, 0x2e, 0x16,
  0x19, 0xf6, 0x08, 0xec, 0xfd, 0xa7, 0xb5, 0x19, 0x25, 0x28, 0xe7, 0x81,
  0xc0, 0xf1, 0x23, 0x12, 0x12, 0x00, 0xee, 0x12, 0xf9, 0x0e, 0x0c, 0xf5,
  0xff, 0xf5, 0x06, 0x0c, 0xf6, 0x04, 0x02, 0xfb, 0xf8, 0x06, 0xff, 0xfe,
  0xff, 0x01, 0x04, 0xf8, 0x0b, 0x09, 0xfe, 0xee, 0x01, 0x05, 0xf2, 0x04,
  0xf9, 0x09, 0xfc, 0x00, 0xfa, 0xf4, 0xf9, 0x00, 0x01, 0xf5, 0x0c, 0xfe,
  0xf7, 0xf6, 0x11, 0xf0, 0x16, 0x0a, 0xfa, 0x03, 0xfe, 0xea, 0xfa, 0xeb,
  0x05, 0x04, 0x00, 0xf6, 0xf5, 0x03, 0x0f, 0xfe, 0xea, 0x0d, 0x0a, 0xb9,
  0x17, 0x2d, 0xe7, 0x1f, 0xe8, 0x4d, 0x33, 0x00, 0xe5, 0xdb, 0xd4, 0x34,
  0xc7, 0x23, 0xdd, 0xba, 0xb1, 0x1b, 0x05, 0x15, 0xdf, 0xef, 0xb6, 0x00,
  0xfd, 0xf7, 0x1f, 0x23, 0xf0, 0xff, 0xf3, 0x0e, 0x12, 0xee, 0xfe, 0xfd,
  0x0c, 0xf0, 0x0c, 0xf2, 0x03, 0x0b, 0x02, 0x0e, 0x06, 0x0f, 0x0a, 0x03,
  0x00, 0x07, 0xee, 0x07, 0xeb, 0x14, 0x0d, 0xf5, 0x00, 0x01, 0xee, 0xf2,
  0x09, 0xf8, 0xf6, 0x16, 0xed, 0x11, 0x07, 0x12, 0xf4, 0x01, 0xeb, 0xf8,
  0x00, 0x01, 0xf2, 0xf4, 0xff, 0xf0, 0xf7, 0xf0, 0x08, 0xf3, 0x01, 0xf0,
  0xed, 0x13, 0x03, 0x01, 0xfc, 0x05, 0xfc, 0x06, 0x0c, 0xda, 0xde, 0x2c,
  0x08, 0x13, 0x93, 0x0c, 0xbf, 0x08, 0xf2, 0x22, 0x81, 0xdc, 0xc6, 0x00,
  0xdc, 0x8c, 0xd8, 0xd0, 0x88, 0x29, 0xcc, 0xa6, 0x14, 0xef, 0xf5, 0x08,
  0xeb, 0x29, 0xd8, 0xfb, 0x0e, 0xfd, 0xef, 0x15, 0x02, 0xf0, 0xee, 0x0d,
  0xec, 0xec, 0xf6, 0xea, 0x06, 0x08, 0xf5, 0xf1, 0x08, 0x0e, 0xf9, 0xf4,
  0xee, 0x03, 0xf6, 0x01, 0xf1, 0x07, 0x0f, 0xed, 0x16, 0xee, 0x0d, 0xf9,
  0x06, 0x16, 0x14, 0x03, 0x05, 0x03, 0xf1, 0xf0, 0xf0, 0x07, 0xf6, 0xef,
  0xf3, 0x14, 0x03, 0x08, 0xec, 0xec, 0xf8, 0x15, 0x05, 0x07, 0x09, 0xed,
  0x09, 0x09, 0xf2, 0xeb, 0xfa, 0xee, 0xea, 0x06, 0xe6, 0x2c, 0x08, 0x2d,
  0x27, 0x1a, 0xcc, 0x3a, 0xd5, 0xbd, 0x00, 0x44, 0xde, 0xe9, 0xc9, 0xb3,
  0x49, 0xbf, 0xf1, 0xed, 0xfb, 0xe9, 0xff, 0x00, 0x9c, 0xeb, 0x05, 0xd6,
  0x1f, 0xf1, 0x29, 0xca, 0xf7, 0xec, 0xf1, 0xf9, 0x13, 0xed, 0xee, 0xf4,
  0x02, 0xf4, 0x16, 0xfd, 0xf7, 0x06, 0x16, 0xef, 0x03, 0x05, 0xf7, 0xee,
  0x0b, 0xed, 0xf9, 0x0b, 0xf8, 0x15, 0xfe, 0x0e, 0xee, 0x05, 0xef, 0xfb,
  0x0a, 0x05, 0x0b, 0x12, 0x0e, 0x08, 0xf2, 0xf3, 0xf6, 0x06, 0xed, 0x14,
  0x0d, 0xfb, 0x0e, 0xff, 0x0e, 0x01, 0x07, 0x09, 0x0e, 0xfc, 0x12, 0x12,
  0x11, 0x08, 0xf9, 0xfd, 0xfa, 0xf6, 0xfc, 0xef, 0x08, 0x01, 0x5f, 0x11,
  0xd4, 0xb2, 0x97, 0x40, 0xf1, 0xeb, 0x12, 0x50, 0x39, 0x09, 0xe3, 0xfd,
  0xe0, 0x03, 0xe8, 0xd5, 0x04, 0x36, 0xe7, 0x05, 0x09, 0xd1, 0xf9, 0x0f,
  0x45, 0xdb, 0xfd, 0x06, 0xf6, 0xff, 0x09, 0xfa, 0x0c, 0x0b, 0xee, 0xf4,
  0xf3, 0x0f, 0x0e, 0x00, 0x04, 0xfa, 0xf5, 0xf8, 0x06, 0x06, 0xf1, 0xed,
  0x10, 0xf6, 0xf3, 0xf6, 0x11, 0xfe, 0xfd, 0x0c, 0xee, 0x0f, 0xff, 0x07,
  0xed, 0xfc, 0x03, 0xfb, 0x11, 0x01, 0xfe, 0xf2, 0x02, 0xf2, 0xfe, 0x0f,
  0xf1, 0xfc, 0xf1, 0x06, 0xec, 0xfc, 0xf6, 0xf9, 0x08, 0xee, 0x03, 0x09,
  0xfc, 0x00, 0x08, 0x02, 0xfb, 0xfe, 0xf2, 0xf7, 0x62, 0x1b, 0xe8, 0x32,
  0xec, 0xea, 0xd4, 0xff, 0xda, 0x32, 0x07, 0x25, 0xc9, 0xc3, 0x16, 0xa7,
  0x19, 0xc7, 0x00, 0xdf, 0xef, 0x38, 0x2b, 0x03, 0x31, 0x27, 0x15, 0xf8,
  0x00, 0xdd, 0xf2, 0x2c, 0xef, 0xfb, 0x05, 0x0b, 0x0a, 0x07, 0xf0, 0x0b,
  0xee, 0xf4, 0xff, 0x06, 0x08, 0xf7, 0x06, 0x0c, 0xec, 0x07, 0x13, 0x0f,
  0x14, 0x09, 0x13, 0xf2, 0xef, 0x13, 0x13, 0xf3, 0x11, 0xee, 0x08, 0x03,
  0x13, 0x0c, 0x0c, 0x12, 0x0a, 0x0d, 0xee, 0x07, 0x0b, 0xfe, 0xff, 0x06,
  0x05, 0xf4, 0xf6, 0xed, 0xff, 0x10, 0x14, 0xf8, 0xfd, 0xfc, 0xf4, 0x0c,
  0xfe, 0xef, 0x04, 0xf0, 0xf1, 0x12, 0xed, 0x02, 0x06, 0xe1, 0x02, 0x12,
  0x19, 0xce, 0xd6, 0xec, 0x0b, 0xfe, 0x3d, 0xdd, 0xc7, 0x42, 0x32, 0x13,
  0x1b, 0xd2, 0x2b, 0x03, 0xe0, 0x81, 0x13, 0x3e, 0x19, 0xe7, 0xea, 0x88,
  0xfc, 0xa6, 0x05, 0xd4, 0x03, 0x09, 0xff, 0xee, 0xfc, 0x08, 0x0f, 0x12,
  0xfd, 0xfd, 0x01, 0xf6, 0xf9, 0x08, 0x0f, 0x10, 0xf3, 0xfd, 0xf6, 0x04,
  0x14, 0x10, 0xfd, 0xfc, 0xfa, 0xfe, 0x0d, 0x03, 0x13, 0x04, 0x08, 0x00,
  0xf3, 0x0a, 0x17, 0xf4, 0xf8, 0xf3, 0xf8, 0xed, 0x0b, 0xea, 0xf6, 0xec,
  0x0d, 0xf3, 0x07, 0x07, 0x0a, 0xfb, 0xfe, 0x05, 0xf9, 0xfc, 0x06, 0xe9,
  0x11, 0xf9, 0xed, 0x11, 0xef, 0x15, 0xed, 0xea, 0x0d, 0xd8, 0x02, 0x45,
  0xae, 0xb7, 0x52, 0x20, 0x27, 0x27, 0xd2, 0x1e, 0x17, 0xfa, 0xee, 0xfe,
  0xd7, 0xce, 0x0e, 0xf2, 0x1d, 0x0a, 0xe2, 0xb0, 0xee, 0xdb, 0x0f, 0xd9,
  0x1d, 0xcc, 0x96, 0x4b, 0x03, 0x18, 0x07, 0x06, 0x0a, 0x17, 0x10, 0x02,
  0xfe, 0x00, 0xf4, 0xef, 0x01, 0xea, 0xea, 0x10, 0x16, 0xeb, 0x12, 0x0d,
  0xf1, 0x16, 0x17, 0x07, 0xea, 0xed, 0xf7, 0x15, 0x0d, 0xfa, 0x10, 0xf9,
  0x03, 0x01, 0x12, 0xf3, 0xf3, 0x14, 0x08, 0x01, 0x06, 0x01, 0xf0, 0x0f,
  0x09, 0xf3, 0xf3, 0xfc, 0x0f, 0x15, 0xff, 0x00, 0xfb, 0xf6, 0xf3, 0x0a,
  0x06, 0xef, 0xf7, 0xf8, 0x12, 0x13, 0xfc, 0x03, 0x27, 0x37, 0x5e, 0xef,
  0xe2, 0xeb, 0x81, 0x3b, 0x01, 0xea, 0xf9, 0x30, 0x0f, 0xde, 0xb8, 0x1d,
  0x5d, 0xdd, 0xd6, 0xed, 0xe9, 0x47, 0xe4, 0x06, 0xb6, 0x04, 0xdf, 0xbf,
  0x1b, 0x97, 0xeb, 0x11, 0xfd, 0xf3, 0x17, 0xff, 0x00, 0x06, 0x03, 0x0f,
  0x00, 0x11, 0x01, 0x0a, 0xeb, 0x0f, 0x11, 0x13, 0x12, 0xfe, 0xf3, 0x12,
  0x00, 0xf1, 0x0e, 0xf2, 0xf8, 0xfc, 0xf9, 0x16, 0xfa, 0xfc, 0x0c, 0xfc,
  0xfd, 0x01, 0x01, 0xe9, 0xfc, 0x0a, 0x09, 0xe9, 0x06, 0x02, 0x15, 0x03,
  0x13, 0x0b, 0x04, 0x0f, 0xf7, 0x05, 0x02, 0xe8, 0xf0, 0x0c, 0xf4, 0x0a,
  0x09, 0x16, 0x15, 0xf8, 0x0d, 0xeb, 0x02, 0xf8, 0xf6, 0x12, 0xe1, 0x3d,
  0x1f, 0x53, 0xb4, 0x10, 0x82, 0xbf, 0xe3, 0xf0, 0xfd, 0xe8, 0xfb, 0xd1,
  0xfe, 0x2a, 0x14, 0xe8, 0xeb, 0x17, 0x03, 0xd9, 0xd5, 0xd5, 0xec, 0xe3,
  0x14, 0xbb, 0x43, 0xd2, 0xf3, 0x09, 0x0c, 0xfa, 0x0e, 0xfd, 0xef, 0xf7,
  0x04, 0xf0, 0x15, 0xed, 0x0d, 0xec, 0xf8, 0xf3, 0x02, 0x11, 0x04, 0x05,
  0x07, 0x05, 0x08, 0x07, 0x09, 0x16, 0x04, 0xf7, 0xee, 0xea, 0x14, 0xf6,
  0x12, 0xfe, 0xf3, 0xf8, 0xe9, 0xf0, 0xec, 0x05, 0xff, 0xfc, 0x00, 0xf1,
  0x0e, 0xf8, 0xf2, 0x11, 0x0d, 0xfd, 0xf3, 0xee, 0x00, 0xec, 0x17, 0xe8,
  0x03, 0x00, 0x01, 0xff, 0xff, 0x02, 0xeb, 0xe7, 0x37, 0x31, 0xca, 0x1e,
  0xef, 0x6e, 0x1d, 0xfe, 0xd1, 0x2c, 0x2b, 0x0a, 0xf4, 0xe4, 0xea, 0x1f,
  0x25, 0xe7, 0xad, 0xa1, 0x1e, 0xbb, 0xc9, 0x35, 0x96, 0x13, 0x87, 0x38,
  0xe6, 0x30, 0xc5, 0xfb, 0xf3, 0x17, 0x15, 0xea, 0x08, 0x0b, 0xe8, 0xf7,
  0xf7, 0xef, 0xff, 0xf3, 0x09, 0xee, 0x08, 0x12, 0x0b, 0x12, 0xf3, 0x09,
  0x16, 0x06, 0x12, 0xfe, 0x02, 0xe7, 0xef, 0x02, 0x13, 0xea, 0x16, 0x13,
  0x07, 0x17, 0xf6, 0x0d, 0x08, 0xf5, 0xef, 0xec, 0x17, 0xef, 0xf0, 0xf2,
  0xf5, 0xfe, 0xfa, 0xee, 0x16, 0x01, 0xf4, 0xf9, 0xeb, 0xf3, 0xef, 0xec,
  0xfd, 0xf7, 0xfe, 0x0e, 0xfa, 0x18, 0x05, 0xfb, 0xc9, 0x3e, 0xe4, 0xe3,
  0xfa, 0xd3, 0xe6, 0xc9, 0x27, 0x07, 0x14, 0x09, 0x08, 0x0f, 0xee, 0xff,
  0x2c, 0xd6, 0xb4, 0xe0, 0xfa, 0xf5, 0x1b, 0xb4, 0x52, 0x06, 0xea, 0x85,
